{"<s>": 0, "<pad>": 1, "</s>": 2, "<unk>": 3, ",": 4, ".": 5, "và": 6, "của": 7, "là": 8, "các": 9, "có": 10, "được": 11, "trong": 12, "cho": 13, "đã": 14, "với": 15, "một": 16, "không": 17, "người": 18, ")": 19, "(": 20, "những": 21, "\"": 22, "này": 23, "để": 24, "ở": 25, "khi": 26, ":": 27, "về": 28, "năm": 29, "đến": 30, "-": 31, "cũng": 32, "vào": 33, "trên": 34, "tại": 35, "nhiều": 36, "đó": 37, "sẽ": 38, "từ": 39, "ra": 40, "phải": 41, "như": 42, "ngày": 43, "lại": 44, "bị": 45, "ông": 46, "làm": 47, "hơn": 48, "việc": 49, "còn": 50, "nhưng": 51, "đang": 52, "sau": 53, "thì": 54, "biết": 55, "Việt_Nam": 56, "đi": 57, "nước": 58, "rất": 59, "mới": 60, "sự": 61, "có_thể": 62, "theo": 63, "mà": 64, ";": 65, "chỉ": 66, "nhất": 67, "mình": 68, "nhà": 69, "tôi": 70, "trước": 71, "lên": 72, "con": 73, "vẫn": 74, "tới": 75, "2": 76, "nên": 77, "tháng": 78, "Theo": 79, "đồng": 80, "cùng": 81, "hai": 82, "anh": 83, "cao": 84, "khác": 85, "họ": 86, "rằng": 87, "bạn": 88, "qua": 89, "vì": 90, "do": 91, "Trong": 92, "Mỹ": 93, "cả": 94, "/": 95, "nói": 96, "đây": 97, "tỉnh": 98, "1": 99, "số": 100, "lần": 101, "chưa": 102, "lớn": 103, "'": 104, "xe": 105, "cô": 106, "3": 107, "thấy": 108, "đường": 109, "cuộc": 110, "đưa": 111, "thực_hiện": 112, "triệu": 113, "?": 114, "cần": 115, "tổ_chức": 116, "sử_dụng": 117, "hay": 118, "hàng": 119, "Hà_Nội": 120, "bằng": 121, "khiến": 122, "tiền": 123, "gần": 124, "Bộ": 125, "tuổi": 126, "đầu": 127, "tăng": 128, "thứ": 129, "thời_gian": 130, "đều": 131, "hoạt_động": 132, "giá": 133, "phát_triển": 134, "...": 135, "nay": 136, "khoảng": 137, "nhau": 138, "cách": 139, "gây": 140, "xây_dựng": 141, "nào": 142, "thêm": 143, "Ảnh": 144, "bên": 145, "Các": 146, "giữa": 147, "gì": 148, "huyện": 149, "từng": 150, "hoặc": 151, "chiếc": 152, "Tuy_nhiên": 153, "nhận": 154, "bà": 155, "mang": 156, "Anh": 157, "đầu_tư": 158, "chính": 159, "khu_vực": 160, "gia_đình": 161, "Sau": 162, "4": 163, "vừa": 164, "Trung_Quốc": 165, "loại": 166, "tốt": 167, "Ông": 168, "dự_án": 169, "bán": 170, "giúp": 171, "một_số": 172, "5": 173, "Nga": 174, "dùng": 175, "xã": 176, "trẻ": 177, "vụ": 178, "đất": 179, "người_dân": 180, "cấp": 181, "rồi": 182, "nếu": 183, "điều": 184, "mức": 185, "tỷ": 186, "thuộc": 187, "mua": 188, "nơi": 189, "đối_với": 190, "đầu_tiên": 191, "điểm": 192, "em": 193, "tiếp_tục": 194, "thông_tin": 195, "trận": 196, "giảm": 197, "thế_giới": 198, "tạo": 199, "tin": 200, "thi": 201, "muốn": 202, "ăn": 203, "quá": 204, "mỗi": 205, "tham_gia": 206, "mọi": 207, "đạt": 208, "quy_định": 209, "10": 210, "doanh_nghiệp": 211, "trường": 212, "chị": 213, "thành_phố": 214, "bộ": 215, "phía": 216, "Những": 217, "Tôi": 218, "lúc": 219, "vấn_đề": 220, "tên": 221, "học": 222, "bởi": 223, "cái": 224, "thị_trường": 225, "đội": 226, "ngoài": 227, "USD": 228, "diễn": 229, "phần": 230, "nó": 231, "giờ": 232, "kinh_tế": 233, "đặc_biệt": 234, "sống": 235, "luôn": 236, "ta": 237, "gái": 238, "nhỏ": 239, "tìm": 240, "ấy": 241, "Một": 242, "gặp": 243, "vốn": 244, "6": 245, "so": 246, "công_tác": 247, "giải": 248, "ngay": 249, "Chủ_tịch": 250, "Khi": 251, "hệ_thống": 252, "TP": 253, "xảy": 254, "ngành": 255, "sản_xuất": 256, "quốc_gia": 257, "đẹp": 258, "khả_năng": 259, "quản_lý": 260, "quyết_định": 261, "biển": 262, "công_ty": 263, "UBND": 264, "sản_phẩm": 265, "phim": 266, "xã_hội": 267, "Phó": 268, "mẹ": 269, "chương_trình": 270, "cơ_quan": 271, "nhằm": 272, "lấy": 273, "mất": 274, "vùng": 275, "nhóm": 276, "ai": 277, "lời": 278, "không_thể": 279, "dưới": 280, "khá": 281, "Đây": 282, "chúng_tôi": 283, "ảnh": 284, "yêu_cầu": 285, "chủ": 286, "đúng": 287, "chia_sẻ": 288, "mạng": 289, "Công_ty": 290, "hỗ_trợ": 291, "phòng": 292, "Nhưng": 293, "tính": 294, "sang": 295, "địa_phương": 296, "rõ": 297, "sáng": 298, "trở_thành": 299, "giữ": 300, "bóng": 301, "thành": 302, "mùa": 303, "đơn_vị": 304, "xem": 305, "tay": 306, "xuống": 307, "bé": 308, "nguồn": 309, "xử_lý": 310, "thường": 311, "đủ": 312, "Nếu": 313, "liên_quan": 314, "Chính_phủ": 315, "khu": 316, "7": 317, "quận": 318, "Ngày": 319, "đặt": 320, "Với": 321, "làm_việc": 322, "vòng": 323, "Thủ_tướng": 324, "loài": 325, "bệnh": 326, "chồng": 327, "gọi": 328, "kinh_doanh": 329, "khó_khăn": 330, "quan_trọng": 331, "quốc_tế": 332, "phát_hiện": 333, "TP.": 334, "chống": 335, "khách": 336, "kể": 337, "bỏ": 338, "nằm": 339, "lực_lượng": 340, "cơ_sở": 341, "kiểm_tra": 342, "ít": 343, "chuyện": 344, "Người": 345, "ba": 346, "Trước": 347, "nữa": 348, "đấu": 349, "Việt": 350, "hết": 351, "cuối": 352, "khỏi": 353, "vàng": 354, "tiếng": 355, "tàu": 356, "Đức": 357, "8": 358, "khó": 359, "bảo_vệ": 360, "triển_khai": 361, "cạnh": 362, "dài": 363, "nhìn": 364, "dành": 365, "chết": 366, "Công_an": 367, "cây": 368, "thu": 369, "ảnh_hưởng": 370, "hiệu_quả": 371, "vợ": 372, "mặt": 373, "khẳng_định": 374, "đánh_giá": 375, "dẫn": 376, "điều_tra": 377, "độ": 378, "chơi": 379, "hiện": 380, "!": 381, "Tại": 382, "HCM": 383, "mạnh": 384, "tự": 385, "tuần": 386, "bài": 387, "du_lịch": 388, "hoa": 389, "chất_lượng": 390, "buổi": 391, "tất_cả": 392, "lãnh_đạo": 393, "kết_quả": 394, "xuất_hiện": 395, "đêm": 396, "chạy": 397, "thời_điểm": 398, "dịch_vụ": 399, "học_sinh": 400, "nữ": 401, "an_toàn": 402, "bắt_đầu": 403, "Từ": 404, "chiều": 405, "Sở": 406, "Tổng_thống": 407, "đảm_bảo": 408, "gửi": 409, "nghiên_cứu": 410, "thay_đổi": 411, "màu": 412, "yêu": 413, "đứng": 414, "tình_trạng": 415, "cán_bộ": 416, "chung": 417, "sinh": 418, "phụ_nữ": 419, "trường_hợp": 420, "kế_hoạch": 421, "điều_kiện": 422, "sao": 423, "quan_hệ": 424, "hình_ảnh": 425, "9": 426, "môi_trường": 427, "2017": 428, "đối_tượng": 429, "chuyển": 430, "20": 431, "Điều": 432, "thành_công": 433, "Năm": 434, "cá_nhân": 435, "phút": 436, "chọn": 437, "hiện_nay": 438, "cầu_thủ": 439, "Ban": 440, "báo": 441, "vị_trí": 442, "trai": 443, "chân": 444, "12": 445, "tấn_công": 446, "hỏi": 447, "giao_thông": 448, "Nhiều": 449, "Pháp": 450, "máy_bay": 451, "dân": 452, "Không": 453, "tuyến": 454, "hướng": 455, "HLV": 456, "khoa_học": 457, "&": 458, "lớp": 459, "miền": 460, "công_nghệ": 461, "điện": 462, "đáng": 463, "đôi": 464, "riêng": 465, "giá_trị": 466, "viết": 467, "dù": 468, "cung_cấp": 469, "nâng": 470, "sớm": 471, "văn_hoá": 472, "quá_trình": 473, "thấp": 474, "giống": 475, "trách_nhiệm": 476, "giải_quyết": 477, "khách_hàng": 478, "gồm": 479, "đánh": 480, "Nhật_Bản": 481, "da": 482, "Để": 483, "2016": 484, "nhanh": 485, "tiến_hành": 486, "nghĩ": 487, "vi_phạm": 488, "tập_trung": 489, "sông": 490, "cuộc_sống": 491, "Ngoài_ra": 492, "quyền": 493, "đá": 494, "chính_thức": 495, "thành_viên": 496, "thiết_kế": 497, "thiếu": 498, "bước": 499, "hoàn_toàn": 500, "2018": 501, "chính_sách": 502, "Có": 503, "30": 504, "trả": 505, "hộ": 506, "chúng_ta": 507, "đồng_thời": 508, "bàn": 509, "vượt": 510, "quan_tâm": 511, "phối_hợp": 512, "nội_dung": 513, "lao_động": 514, "vài": 515, "nước_ngoài": 516, "sân": 517, "lĩnh_vực": 518, "Việc": 519, "thật": 520, "cơ_hội": 521, "địa_bàn": 522, "nghe": 523, "hợp_tác": 524, "lượng": 525, "món": 526, "nhiệm_vụ": 527, "câu": 528, "thuốc": 529, "công_việc": 530, "công_trình": 531, "dòng": 532, "phục_vụ": 533, "nặng": 534, "báo_cáo": 535, "Hàn_Quốc": 536, "bắt": 537, "hãng": 538, "thể_hiện": 539, "tài_sản": 540, "khán_giả": 541, "nam": 542, "thích": 543, "Nhà_nước": 544, "đầy": 545, "chuẩn_bị": 546, "đề_nghị": 547, "mở": 548, "phù_hợp": 549, "chuyến": 550, "chịu": 551, "mục_tiêu": 552, "đông": 553, "đại_diện": 554, "nổi_tiếng": 555, "“": 556, "phường": 557, "máy": 558, "Bên": 559, "kỳ": 560, "giành": 561, "chỉ_đạo": 562, "hiểu": 563, "”": 564, "án": 565, "càng": 566, "chất": 567, "nền": 568, "cá": 569, "thế": 570, "ý_kiến": 571, "chúng": 572, "thực_tế": 573, "giao": 574, "cháu": 575, "công_bố": 576, "hát": 577, "thuế": 578, "mối": 579, "đóng": 580, "Và": 581, "chuyên_gia": 582, "trực_tiếp": 583, "pháp_luật": 584, "mẫu": 585, "lễ": 586, "hợp_đồng": 587, "quay": 588, "hành_vi": 589, "Nam": 590, "trung_tâm": 591, "dễ": 592, "bất_ngờ": 593, "sức_khoẻ": 594, "nhờ": 595, "như_vậy": 596, "chứ": 597, "Syria": 598, "m": 599, "xác_định": 600, "điện_thoại": 601, "đâu": 602, "nhân_dân": 603, "xa": 604, "lòng": 605, "giáo_dục": 606, "trở_lại": 607, "Đến": 608, "giai_đoạn": 609, "ngân_hàng": 610, "xin": 611, "tránh": 612, "15": 613, "bảng": 614, "Quốc_hội": 615, "thắng": 616, "tăng_cường": 617, "bản": 618, "Cô": 619, "bay": 620, "Đảng": 621, "Trường": 622, "Đà_Nẵng": 623, "11": 624, "thương_mại": 625, "vị": 626, "thiết_bị": 627, "Bộ_trưởng": 628, "an_ninh": 629, "cầu": 630, "Còn": 631, "làng": 632, "cũ": 633, "nhu_cầu": 634, "Ở": 635, "thường_xuyên": 636, "diện_tích": 637, "diễn_viên": 638, "đoàn": 639, "lựa_chọn": 640, "mắt": 641, "ngôi": 642, "đào_tạo": 643, "thậm_chí": 644, "quả": 645, "bao_gồm": 646, "Cục": 647, "chính_quyền": 648, "sinh_viên": 649, "nhân_viên": 650, "đàn_ông": 651, "thông_qua": 652, "uống": 653, "hôm": 654, "thông_báo": 655, "xanh": 656, "nghề": 657, "cứ": 658, "kiểm_soát": 659, "2015": 660, "một_cách": 661, "hoàn_thành": 662, "ngồi": 663, "Trung_tâm": 664, "không_chỉ": 665, "khoản": 666, "chẳng": 667, "toàn": 668, "Đó": 669, "Cũng": 670, "thi_đấu": 671, "tuyên_bố": 672, "họp": 673, "Về": 674, "công": 675, "trưởng": 676, "thí_sinh": 677, "lịch_sử": 678, "mưa": 679, "Bà": 680, "giới": 681, "trở": 682, "chỗ": 683, "thuê": 684, "rừng": 685, "bóng_đá": 686, "đoạn": 687, "hành_động": 688, "đô_thị": 689, "chụp": 690, "thịt": 691, "sở_hữu": 692, "Giám_đốc": 693, "thực_phẩm": 694, "nuôi": 695, "100": 696, "vay": 697, "tổng": 698, "tài_chính": 699, "lâu": 700, "ghi": 701, "vậy": 702, "suốt": 703, "thu_hút": 704, "đảo": 705, "kỹ_thuật": 706, "tình_hình": 707, "Tết": 708, "vai_trò": 709, "cuối_cùng": 710, "bức": 711, "cộng_đồng": 712, "sách": 713, "khai_thác": 714, "phương_tiện": 715, "Hai": 716, "biện_pháp": 717, "ban": 718, "trồng": 719, "rộng": 720, "đăng_ký": 721, "giải_pháp": 722, "nhớ": 723, "chiếm": 724, "liên_tục": 725, "ổn_định": 726, "tích_cực": 727, "ủng_hộ": 728, "cơ_thể": 729, "nguyên_nhân": 730, "áp_dụng": 731, "trái": 732, "đời": 733, "ngày_càng": 734, "hồ_sơ": 735, "Trung_ương": 736, "nhạc": 737, "nạn_nhân": 738, "Loài": 739, "lập": 740, "chức_năng": 741, "thực_sự": 742, "truyền_thống": 743, "bản_thân": 744, "thăm": 745, "Chúng_tôi": 746, "ô_tô": 747, "tầm": 748, "bác_sĩ": 749, "nguy_cơ": 750, "trang": 751, "vừa_qua": 752, "vụ_việc": 753, "con_người": 754, "châu_Âu": 755, "chú_ý": 756, "bệnh_viện": 757, "nợ": 758, "vai": 759, "sức": 760, "Luật": 761, "toàn_bộ": 762, "thành_lập": 763, "máu": 764, "ký": 765, "ca_sĩ": 766, "nhanh_chóng": 767, "A": 768, "trắng": 769, "-@@": 770, "cháy": 771, "dừng": 772, "nỗ_lực": 773, "coi": 774, "hạn_chế": 775, "sự_kiện": 776, "chi_phí": 777, "núi": 778, "đồ": 779, "tên_lửa": 780, "chục": 781, "điều_trị": 782, "Họ": 783, "Hồ_Chí_Minh": 784, "ứng_dụng": 785, "giao_dịch": 786, "cho_phép": 787, "tấn": 788, "bao_giờ": 789, "thời": 790, "cụ_thể": 791, "Hội": 792, "Hiện": 793, "đất_nước": 794, "đỏ": 795, "Triều_Tiên": 796, "áo": 797, "bệnh_nhân": 798, "trả_lời": 799, "số_lượng": 800, "nêu": 801, "đứa": 802, "2010": 803, "mở_rộng": 804, "cảnh": 805, "tặng": 806, "đơn": 807, "sâu": 808, "lý_do": 809, "km": 810, "chi": 811, "chiến_thắng": 812, "2014": 813, "chứa": 814, "Được": 815, "nhà_nước": 816, "quân_sự": 817, "bổ_sung": 818, "hình": 819, "cảnh_sát": 820, "50": 821, "tinh_thần": 822, "nhất_là": 823, "nghìn": 824, "chủ_yếu": 825, "vé": 826, "tai_nạn": 827, "niềm": 828, "quân": 829, "quân_đội": 830, "vô_cùng": 831, "kéo_dài": 832, "toà": 833, "tập": 834, "phố": 835, "Đông": 836, "chính_trị": 837, "chăm_sóc": 838, "kg": 839, "vợ_chồng": 840, "cảm_thấy": 841, "ĐH": 842, "Chỉ": 843, "mời": 844, "ngủ": 845, "giới_thiệu": 846, "Nguồn": 847, "phí": 848, "mấy": 849, "Đại_học": 850, "kinh_nghiệm": 851, "hãy": 852, "ca": 853, "dự_kiến": 854, "góp_phần": 855, "nguyên": 856, "hồi": 857, "in": 858, "Dù": 859, "hạnh_phúc": 860, "trẻ_em": 861, "cổ": 862, "công_an": 863, "+": 864, "nghệ_thuật": 865, "Thái_Lan": 866, "dịp": 867, "công_nghiệp": 868, "Ngay": 869, "S@@": 870, "Uỷ_ban": 871, "dân_tộc": 872, "đem": 873, "hiện_tại": 874, "đáp_ứng": 875, "câu_chuyện": 876, "trăm": 877, "tối": 878, "tương_lai": 879, "Trên": 880, "cậu": 881, "quý": 882, "quy_hoạch": 883, ">": 884, "tìm_kiếm": 885, "thôi": 886, "nhà_đầu_tư": 887, "đổ": 888, "to": 889, "18": 890, "rơi": 891, "tỉ": 892, "trở_nên": 893, "phiên": 894, "tham_dự": 895, "cặp": 896, "cho_hay": 897, "nóng": 898, "tỷ_lệ": 899, "tốc_độ": 900, "hiện_đại": 901, "du_khách": 902, "–": 903, "M@@": 904, "trang_bị": 905, "trao": 906, "xuất_khẩu": 907, "Bắc": 908, "văn_bản": 909, "Đặc_biệt": 910, "vui": 911, "nhấn_mạnh": 912, "DN": 913, "quê": 914, "nghỉ": 915, "tăng_trưởng": 916, "tiếp": 917, "tạm": 918, "cắt": 919, "bờ": 920, "nghiêm_trọng": 921, "nghèo": 922, "báo_chí": 923, "B@@": 924, "16": 925, "chính_phủ": 926, "ra_mắt": 927, "thủ_tục": 928, "giám_sát": 929, "dự": 930, "kiểu": 931, "chợ": 932, "dầu": 933, "Tây": 934, "xem_xét": 935, "thoả_thuận": 936, "hình_thức": 937, "sẵn_sàng": 938, "tình": 939, "dạy": 940, "Ấn_Độ": 941, "mà_còn": 942, "bắn": 943, "cười": 944, "có_mặt": 945, "quán": 946, "điều_chỉnh": 947, "14": 948, "ấn_tượng": 949, "hành_chính": 950, "rút": 951, "kết_hợp": 952, "ha": 953, "xong": 954, "thanh_niên": 955, "đại_học": 956, "lắm": 957, "nguy_hiểm": 958, "mạnh_mẽ": 959, "giáo_viên": 960, "lá": 961, "Cùng": 962, "kẻ": 963, "13": 964, "rời": 965, "đề_xuất": 966, "TTXVN": 967, "C": 968, "tấm": 969, "Bạn": 970, "chờ": 971, "đơn_giản": 972, "y_tế": 973, "cần_thiết": 974, "cánh": 975, "dần": 976, "cố_gắng": 977, "40": 978, "giấy": 979, "mong_muốn": 980, "xe_máy": 981, "T@@": 982, "nổi": 983, "sắp": 984, "đau": 985, "nghệ_sĩ": 986, "đọc": 987, "chở": 988, "đen": 989, "Trưởng": 990, "vũ_khí": 991, "D@@": 992, "cửa": 993, "chắc_chắn": 994, "chiến_lược": 995, "phép": 996, "đầy_đủ": 997, "IS": 998, "tình_cảm": 999, "Thế": 1000, "bị_cáo": 1001, "môn": 1002, "vô_địch": 1003, "Ngoài": 1004, "hồ": 1005, "bình_thường": 1006, "Trung": 1007, "Chính": 1008, "buộc": 1009, "hướng_dẫn": 1010, "nhập_khẩu": 1011, "đại_biểu": 1012, "Hoa_hậu": 1013, "bảo_đảm": 1014, "kết_thúc": 1015, "thay": 1016, "khoá": 1017, "cấm": 1018, "hề": 1019, "phiên_bản": 1020, "mắc": 1021, "Mặc_dù": 1022, "Vì": 1023, "sạch": 1024, "cổ_phiếu": 1025, "xuất_sắc": 1026, "trời": 1027, "thể_thao": 1028, "kém": 1029, "lượt": 1030, "siêu": 1031, "tầng": 1032, "CLB": 1033, "2011": 1034, "Nguyễn_@@": 1035, "mặc": 1036, "Đoàn": 1037, "lương": 1038, "đợt": 1039, "duy_trì": 1040, "khối": 1041, "L@@": 1042, "phương_án": 1043, "căn": 1044, "Báo": 1045, "thương_hiệu": 1046, "dễ_dàng": 1047, "tác_phẩm": 1048, "ma_tuý": 1049, "nắm": 1050, "Viện": 1051, "ngân_sách": 1052, "TPHCM": 1053, "dựa": 1054, "Sài_Gòn": 1055, "2012": 1056, "yếu_tố": 1057, "25": 1058, "Y_tế": 1059, "đối_thủ": 1060, "nhẹ": 1061, "truyền_thông": 1062, "tử_vong": 1063, "Dự_án": 1064, "iPhone": 1065, "chấp_nhận": 1066, "thu_nhập": 1067, "khủng_bố": 1068, "sai": 1069, "C@@": 1070, "mô_hình": 1071, "PV": 1072, "phát": 1073, "gà": 1074, "hàng_hoá": 1075, "Cụ_thể": 1076, "ĐT": 1077, "xấu": 1078, "gắn": 1079, "sợ": 1080, "cơ_quan_chức_năng": 1081, "theo_dõi": 1082, "bầu": 1083, "tuyển": 1084, "T": 1085, "N@@": 1086, "quà": 1087, "cuốn": 1088, "Bệnh_viện": 1089, "minh_hoạ": 1090, "mục_đích": 1091, "danh_sách": 1092, "hội": 1093, "hạng": 1094, "kiếm": 1095, "VN": 1096, "đóng_góp": 1097, "cứu": 1098, "súng": 1099, "nhà_máy": 1100, "đón": 1101, "tờ": 1102, "thôn": 1103, "tiêu_dùng": 1104, "2013": 1105, "Mỗi": 1106, "thực_vật": 1107, "Chị": 1108, "rau": 1109, "nông_nghiệp": 1110, "i": 1111, "trao_đổi": 1112, "hôm_nay": 1113, "cạnh_tranh": 1114, "sự_nghiệp": 1115, "nhân_vật": 1116, "V@@": 1117, "s": 1118, "Phòng": 1119, "17": 1120, "ban_hành": 1121, "pha": 1122, "tác_động": 1123, "tự_nhiên": 1124, "H@@": 1125, "mô_tả": 1126, "kết_nối": 1127, "thúc_đẩy": 1128, "Do": 1129, "cựu": 1130, "ngắn": 1131, "thiệt_hại": 1132, "phạt": 1133, "video": 1134, "bạn_bè": 1135, "hấp_dẫn": 1136, "lẫn": 1137, "hàng_đầu": 1138, "Sự": 1139, "nộp": 1140, "dư_luận": 1141, "nàng": 1142, "điện_tử": 1143, "R@@": 1144, "cơn": 1145, "Một_số": 1146, "ban_đầu": 1147, "cửa_hàng": 1148, "phá": 1149, "chế_độ": 1150, "hâm_mộ": 1151, "không_gian": 1152, "bất_cứ": 1153, "Cảnh_sát": 1154, "duy_nhất": 1155, "thua": 1156, "bánh": 1157, "năng_lực": 1158, "thoát": 1159, "thi_công": 1160, "Đối_với": 1161, "bãi": 1162, "giả": 1163, "tranh": 1164, "màn_hình": 1165, "gốc": 1166, "Hội_nghị": 1167, "Facebook": 1168, "sữa": 1169, "nhận_định": 1170, "kèm": 1171, "đẩy": 1172, "24": 1173, "thị_trấn": 1174, "Ngân_hàng": 1175, "thử": 1176, "trạm": 1177, "ung_thư": 1178, "2009": 1179, "song": 1180, "sáng_tạo": 1181, "thân": 1182, "Tập_đoàn": 1183, "rượu": 1184, "chiến_đấu": 1185, "P@@": 1186, "t@@": 1187, "biến": 1188, "bão": 1189, "thế_hệ": 1190, "chủ_động": 1191, "Ukraine": 1192, "Vụ": 1193, "biên_giới": 1194, "19": 1195, "chữ": 1196, "lo": 1197, "trước_đây": 1198, "chi_tiết": 1199, "khắc_phục": 1200, "bố": 1201, "việc_làm": 1202, "Vào": 1203, "t": 1204, "lợi_ích": 1205, "Thành": 1206, "rõ_ràng": 1207, "âm_nhạc": 1208, "tình_yêu": 1209, "lỗi": 1210, "Khu": 1211, "tiết_lộ": 1212, "tiêu_chuẩn": 1213, "vẻ": 1214, "xung_quanh": 1215, "phổ_biến": 1216, "kịp_thời": 1217, "bảo": 1218, "Nhật": 1219, "chậm": 1220, "bom": 1221, "chàng": 1222, "cảnh_báo": 1223, "chia": 1224, "lối": 1225, "m2": 1226, "học_tập": 1227, "liền": 1228, "Apple": 1229, "200": 1230, "y": 1231, "ngàn": 1232, "quan_điểm": 1233, "Thanh_Hoá": 1234, "dấu_hiệu": 1235, "d@@": 1236, "K@@": 1237, "cải_thiện": 1238, "gấp": 1239, "sự_việc": 1240, "A@@": 1241, "ý_nghĩa": 1242, "năng_lượng": 1243, "Nó": 1244, "căn_hộ": 1245, "tóc": 1246, "B": 1247, "Đồng_thời": 1248, "thầy": 1249, "quy_mô": 1250, "xây": 1251, "luật": 1252, "cam_kết": 1253, "Lúc": 1254, "ngôi_sao": 1255, "bày_tỏ": 1256, "cha": 1257, "SN": 1258, "phóng_viên": 1259, "hy_vọng": 1260, "Hội_đồng": 1261, "đồng_ý": 1262, "di_chuyển": 1263, "cơ_bản": 1264, "gỗ": 1265, "Cách": 1266, "nét": 1267, "nổ": 1268, "hạ": 1269, "khắp": 1270, "Xây_dựng": 1271, "cổ_phần": 1272, "gió": 1273, "tiếp_cận": 1274, "Vì_vậy": 1275, "G@@": 1276, "ca_khúc": 1277, "tái": 1278, "thế_nào": 1279, "toàn_cầu": 1280, "sân_bay": 1281, "sự_cố": 1282, "diện": 1283, "khai": 1284, "tồn_tại": 1285, "bị_thương": 1286, "cầm": 1287, "phong_cách": 1288, "trải": 1289, "thay_thế": 1290, "tội": 1291, "châu_Á": 1292, "đe_doạ": 1293, "đề": 1294, "Nghệ_An": 1295, "60": 1296, "trung_bình": 1297, "21": 1298, "khách_sạn": 1299, "kéo": 1300, "n@@": 1301, "s@@": 1302, "điều_khiển": 1303, "đội_tuyển": 1304, "cảm_giác": 1305, "hàng_loạt": 1306, "phản_ánh": 1307, "chung_kết": 1308, "may_mắn": 1309, "lạnh": 1310, "thừa_nhận": 1311, "tối_đa": 1312, "Cơ_quan": 1313, "xác_nhận": 1314, "hưởng": 1315, "Sáng": 1316, "kỷ_niệm": 1317, "Tài_chính": 1318, "tương_tự": 1319, "phát_biểu": 1320, "lửa": 1321, "Con": 1322, "quên": 1323, "gia_tăng": 1324, "ngon": 1325, "Qua": 1326, "nông_thôn": 1327, "thời_trang": 1328, "hơi": 1329, "vận_chuyển": 1330, "Trump": 1331, "vận_động": 1332, "vườn": 1333, "ghi_nhận": 1334, "thống_nhất": 1335, "ngừng": 1336, "E@@": 1337, "bây_giờ": 1338, "bữa": 1339, "h@@": 1340, "đối_tác": 1341, "truyền_hình": 1342, "Hải_Phòng": 1343, "tự_do": 1344, "O@@": 1345, "Iran": 1346, "ch@@": 1347, "hiện_trường": 1348, "quảng_cáo": 1349, "Em": 1350, "Cả": 1351, "dân_số": 1352, "thông_minh": 1353, "trú": 1354, "THPT": 1355, "con_số": 1356, "kia": 1357, "e@@": 1358, "Trần_@@": 1359, "tung": 1360, "đổi": 1361, "nhân": 1362, "sân_khấu": 1363, "tiết_kiệm": 1364, "máy_tính": 1365, "500": 1366, "thu_hồi": 1367, "hoàn_thiện": 1368, "hạt_nhân": 1369, "tìm_hiểu": 1370, "ít_nhất": 1371, "Internet": 1372, "quanh": 1373, "thuận_lợi": 1374, "Thành_phố": 1375, "căn_cứ": 1376, "phát_hành": 1377, "công_khai": 1378, "nỗi": 1379, "Thổ_Nhĩ_Kỳ": 1380, "phân_tích": 1381, "hè": 1382, "Hàng": 1383, "i@@": 1384, "bố_mẹ": 1385, "công_nhân": 1386, "m@@": 1387, "b@@": 1388, "phân": 1389, "trang_phục": 1390, "tổ": 1391, "đảng": 1392, "chú": 1393, "giọng": 1394, "c@@": 1395, "Malaysia": 1396, "tuy_nhiên": 1397, "như_thế_nào": 1398, "hầu_hết": 1399, "bang": 1400, "sát": 1401, "chặt": 1402, "bất_kỳ": 1403, "trị_giá": 1404, "tỏ": 1405, "loạt": 1406, "sàn": 1407, "tư_vấn": 1408, "Huế": 1409, "lạ": 1410, "cưới": 1411, "cơm": 1412, "thủ_đô": 1413, "vận_tải": 1414, "hạt": 1415, "23": 1416, "thành_tích": 1417, "lợi_nhuận": 1418, "hết_sức": 1419, "bậc": 1420, "kênh": 1421, "lệnh": 1422, "Bí_thư": 1423, "Chelsea": 1424, "quỹ": 1425, "Quốc_gia": 1426, "khô": 1427, "Hoa_Kỳ": 1428, "clip": 1429, "viên": 1430, "phương_pháp": 1431, "Sơn": 1432, "tội_phạm": 1433, "Thông_tin": 1434, "ghế": 1435, "giàu": 1436, "Ba": 1437, "hội_nghị": 1438, "nửa": 1439, "nạn": 1440, "chiến_dịch": 1441, "hành_khách": 1442, "22": 1443, "EU": 1444, "bối_cảnh": 1445, "đổi_mới": 1446, "tiến": 1447, "giúp_đỡ": 1448, "màn": 1449, "kêu_gọi": 1450, "hút": 1451, "bất_động_sản": 1452, "đời_sống": 1453, "lo_lắng": 1454, "rẻ": 1455, "hẳn": 1456, "nông_dân": 1457, "The_@@": 1458, "cơ_chế": 1459, "giết": 1460, "chính_xác": 1461, "Singapore": 1462, "Hải": 1463, "bao": 1464, "dạng": 1465, "miêu_tả": 1466, "đàm_phán": 1467, "tương_đương": 1468, "dám": 1469, "dữ_liệu": 1470, "nắng": 1471, "lái": 1472, "TS": 1473, "Tổ_chức": 1474, "Lê_@@": 1475, "bò": 1476, "cân": 1477, "kết_luận": 1478, "Thanh": 1479, "quan_chức": 1480, "động_cơ": 1481, "áp_lực": 1482, "hơn_nữa": 1483, "bắt_giữ": 1484, "cao_cấp": 1485, "cú": 1486, "p@@": 1487, "như_thế": 1488, "Chương_trình": 1489, "vỡ": 1490, "Không_chỉ": 1491, "tuyên_truyền": 1492, "k@@": 1493, "l@@": 1494, "Quản_lý": 1495, "Tây_Ban_Nha": 1496, "*": 1497, "chế_biến": 1498, "ASEAN": 1499, "lũ": 1500, "địa_điểm": 1501, "Cuộc": 1502, "thanh_toán": 1503, "xu_hướng": 1504, "TNHH": 1505, "GTVT": 1506, "Philippines": 1507, "chắc": 1508, "huy_động": 1509, "an": 1510, "cà_phê": 1511, "tiếp_theo": 1512, "Quốc_phòng": 1513, "tiêu_thụ": 1514, "thanh_tra": 1515, "lãi_suất": 1516, "a": 1517, "kiến_nghị": 1518, "thẻ": 1519, "buồn": 1520, "khóc": 1521, "xét": 1522, "tâm_lý": 1523, "thất_bại": 1524, "ngã": 1525, "phát_huy": 1526, "Hùng": 1527, "Do_đó": 1528, "g@@": 1529, "Tổng_cục": 1530, "2008": 1531, "đừng": 1532, "chuyên_môn": 1533, "Thời_gian": 1534, "bắc": 1535, "chiến_tranh": 1536, "tác_dụng": 1537, "giải_trí": 1538, "Tuấn": 1539, "vệ_sinh": 1540, "Hiện_nay": 1541, "chặt_chẽ": 1542, "cảng": 1543, "giỏi": 1544, "Nghị_định": 1545, "7@@": 1546, "trật_tự": 1547, "sinh_hoạt": 1548, "căng_thẳng": 1549, "Indonesia": 1550, "9@@": 1551, "Quyết_định": 1552, "phản_ứng": 1553, "nổi_bật": 1554, "I": 1555, "8@@": 1556, "tình_huống": 1557, "bầu_cử": 1558, "doanh_thu": 1559, "chuyên": 1560, "biểu_diễn": 1561, "Như_vậy": 1562, "liên_tiếp": 1563, "chuyên_nghiệp": 1564, "e": 1565, "tổng_số": 1566, "phức_tạp": 1567, "chùa": 1568, "bụng": 1569, "300": 1570, "không_khí": 1571, "thử_nghiệm": 1572, "giải_thưởng": 1573, "chung_cư": 1574, "sóng": 1575, "Có_thể": 1576, "vỏ": 1577, "đạo_diễn": 1578, "F@@": 1579, "chuẩn": 1580, "y@@": 1581, "đấy": 1582, "trông": 1583, "Giá": 1584, "World_Cup": 1585, "bốn": 1586, "tổng_hợp": 1587, "trình_diễn": 1588, "Là": 1589, "chứng_kiến": 1590, "cụ": 1591, "có_lẽ": 1592, "khoe": 1593, "mới_đây": 1594, "o": 1595, "lợi": 1596, "Hoa": 1597, "phê_duyệt": 1598, "thai": 1599, "x@@": 1600, "Thứ_trưởng": 1601, "mùi": 1602, "Biển": 1603, "bức_xúc": 1604, "gương_mặt": 1605, "lúa": 1606, "phương": 1607, "ngăn_chặn": 1608, "đồng_chí": 1609, "giải_thích": 1610, "ngang": 1611, "Minh": 1612, "kiến_thức": 1613, "tự_tin": 1614, "Chiều": 1615, "kịp": 1616, "Như": 1617, "bền_vững": 1618, "tài_khoản": 1619, "tù": 1620, "khám": 1621, "I@@": 1622, "chủ_tịch": 1623, "mã": 1624, "6@@": 1625, "dịch": 1626, "hành_trình": 1627, "phẫu_thuật": 1628, "cấp_cứu": 1629, "nhắc": 1630, "Hiện_tại": 1631, "lái_xe": 1632, "lễ_hội": 1633, "cực": 1634, "phụ_huynh": 1635, "Google": 1636, "nhập": 1637, "góc": 1638, "Hà_Tĩnh": 1639, "hợp_lý": 1640, "Tháng": 1641, "tốt_nghiệp": 1642, "từ_chối": 1643, "rác": 1644, "nghĩa": 1645, "X@@": 1646, "điều_hành": 1647, "đăng_tải": 1648, "Nguyễn_Văn_@@": 1649, "Đội": 1650, "bộ_phận": 1651, "đòi": 1652, "mức_độ": 1653, "hậu_quả": 1654, "tài_năng": 1655, "u": 1656, "Kết_quả": 1657, "chó": 1658, "v@@": 1659, "khí": 1660, "chữa": 1661, "chủ_trương": 1662, "70": 1663, "h": 1664, "tiếp_nhận": 1665, "xếp": 1666, "trái_phép": 1667, "cha_mẹ": 1668, "năm_ngoái": 1669, "vận_hành": 1670, "trụ_sở": 1671, "o@@": 1672, "đua": 1673, "danh_hiệu": 1674, "cướp": 1675, "đạn": 1676, "n": 1677, "Vietnam": 1678, "cuộc_đời": 1679, "nâng_cấp": 1680, "bố_trí": 1681, "Đầu_tư": 1682, "Hãy": 1683, "a_@@": 1684, "gói": 1685, "Arsenal": 1686, "già": 1687, "nhà_trường": 1688, "ưu_tiên": 1689, "đèn": 1690, "lên_tiếng": 1691, "vua": 1692, "cảm_xúc": 1693, "gạo": 1694, "mặc_dù": 1695, "Hà": 1696, "Thậm_chí": 1697, "r@@": 1698, "vì_vậy": 1699, "thảo_luận": 1700, "ng@@": 1701, "suy_nghĩ": 1702, "1.000": 1703, "đẩy_mạnh": 1704, "Reuters": 1705, "Nhà": 1706, "tác_giả": 1707, "người_thân": 1708, "Thái": 1709, "xứ": 1710, "Bởi": 1711, "hiện_tượng": 1712, "tư": 1713, "tim": 1714, "tài_liệu": 1715, "hoà_bình": 1716, "đào": 1717, "e_@@": 1718, "tài_xế": 1719, "Chiếc": 1720, "Lào": 1721, "trứng": 1722, "đối_mặt": 1723, "game": 1724, "GD": 1725, "tập_đoàn": 1726, "bà_con": 1727, "xinh_đẹp": 1728, "hình_thành": 1729, "phần_mềm": 1730, "băng": 1731, "sức_mạnh": 1732, "lợn": 1733, "thư": 1734, "Ch@@": 1735, "đập": 1736, "Hồ": 1737, "hoá": 1738, "diễn_biến": 1739, "thưởng": 1740, "chủ_đề": 1741, "26": 1742, "viêm": 1743, "Nghị_quyết": 1744, "28": 1745, "phụ": 1746, "dây": 1747, "thú_vị": 1748, "ar@@": 1749, "lao": 1750, "_@@": 1751, "Giáo_dục": 1752, "tình_dục": 1753, "thị_xã": 1754, "Israel": 1755, "trải_nghiệm": 1756, "Linh": 1757, "kinh_phí": 1758, "Nguyên": 1759, "Mới_đây": 1760, "đáng_kể": 1761, "tín_dụng": 1762, "giám_đốc": 1763, "dậy": 1764, "5@@": 1765, "chức": 1766, "cát": 1767, "Cần_Thơ": 1768, "27": 1769, "CP": 1770, "rửa": 1771, "sẵn": 1772, "phản_đối": 1773, "tính_năng": 1774, "đám": 1775, "lộ": 1776, "chấn_thương": 1777, "miệng": 1778, "Hồi_giáo": 1779, "mặt_hàng": 1780, "H": 1781, "Đ@@": 1782, "yếu": 1783, "ô_nhiễm": 1784, "Vinh": 1785, "thế_kỷ": 1786, "đâm": 1787, "hoàn_cảnh": 1788, "lo_ngại": 1789, "mong": 1790, "z@@": 1791, "tham_nhũng": 1792, "nhà_khoa_học": 1793, "tiền_đạo": 1794, "khảo_sát": 1795, "thẳng": 1796, "thời_tiết": 1797, "thay_vì": 1798, "thống_kê": 1799, "may": 1800, "nghi": 1801, "quyết_tâm": 1802, "công_nhận": 1803, "Văn_phòng": 1804, "độc_đáo": 1805, "phong_trào": 1806, "Vậy": 1807, "Phát_triển": 1808, "vì_thế": 1809, "thách_thức": 1810, "tập_thể": 1811, "ga": 1812, "đăng": 1813, "tiến_độ": 1814, "dự_báo": 1815, "Kim": 1816, "dân_cư": 1817, "fan": 1818, "tuyệt_vời": 1819, "cung": 1820, "ngoại": 1821, "hoà": 1822, "bao_nhiêu": 1823, "đàn": 1824, "2020": 1825, "Hoàng_@@": 1826, "Th@@": 1827, "túi": 1828, "văn_phòng": 1829, "35": 1830, "Quảng_Nam": 1831, "Bình": 1832, "bình_luận": 1833, "tươi": 1834, "Thứ": 1835, "dường_như": 1836, "thiệt_mạng": 1837, "cư_dân": 1838, "Ngoại_giao": 1839, "chứng_minh": 1840, "29": 1841, "Song": 1842, "U23": 1843, "quy_trình": 1844, "người_mẫu": 1845, "thẩm_quyền": 1846, "ý_tưởng": 1847, "Nguyễn_Thị_@@": 1848, "thức_ăn": 1849, "a@@": 1850, "rà_soát": 1851, "Cho": 1852, "45": 1853, "4@@": 1854, "tận": 1855, "bồi_thường": 1856, "kỹ_năng": 1857, "Phương": 1858, "…": 1859, "Dũng": 1860, "Iraq": 1861, "mua_bán": 1862, "trúng": 1863, "làn": 1864, "lưới": 1865, "f@@": 1866, "ngập": 1867, "xử_phạt": 1868, "lãnh_thổ": 1869, "khổng_lồ": 1870, "Long": 1871, "nấu": 1872, "xăng": 1873, "Samsung": 1874, "đỗ": 1875, "lưng": 1876, "an@@": 1877, "U@@": 1878, "nhà_sản_xuất": 1879, "sửa_đổi": 1880, "u@@": 1881, "đội_ngũ": 1882, "en@@": 1883, "Đồng_Nai": 1884, "trốn": 1885, "muối": 1886, "bột": 1887, "kỷ_lục": 1888, "vật": 1889, "Văn_hoá": 1890, "di_động": 1891, "Hồng": 1892, "trình": 1893, "c": 1894, "quen": 1895, "ôm": 1896, "tường": 1897, "mũi": 1898, "Tất_cả": 1899, "thép": 1900, "camera": 1901, "Cty": 1902, "Du_lịch": 1903, "cổng": 1904, "tiền_vệ": 1905, "truyền": 1906, "Số": 1907, "Thủ_đô": 1908, "một_vài": 1909, "kho": 1910, "nguồn_gốc": 1911, "độc_lập": 1912, "of": 1913, "chiếu": 1914, "công_suất": 1915, "Brazil": 1916, "80": 1917, "toàn_quốc": 1918, "mảnh": 1919, "Bắc_Kinh": 1920, "màu_sắc": 1921, "anh_em": 1922, "miễn_phí": 1923, "thơ": 1924, "công_dân": 1925, "er@@": 1926, "D": 1927, "rủi_ro": 1928, "Campuchia": 1929, "hạ_tầng": 1930, "al@@": 1931, "giải_phóng": 1932, "đốt": 1933, "liệu": 1934, "đồng_hồ": 1935, "chứng_nhận": 1936, "thoải_mái": 1937, "mm": 1938, "2007": 1939, "người_yêu": 1940, "tài": 1941, "mặt_bằng": 1942, "chia_tay": 1943, "Quảng_Ninh": 1944, "nhảy": 1945, "ven": 1946, "k": 1947, "phóng": 1948, "in@@": 1949, "Nói": 1950, "toàn_diện": 1951, "Bình_Dương": 1952, "nhà_hàng": 1953, "liên_kết": 1954, "Hoàng": 1955, "M": 1956, "90": 1957, "quốc_phòng": 1958, "phần_lớn": 1959, "khác_biệt": 1960, "hại": 1961, "Dương": 1962, "tiếp_xúc": 1963, "độc": 1964, "sinh_sống": 1965, "II": 1966, "Riêng": 1967, "chỉ_tiêu": 1968, "Giao_thông": 1969, "chị_em": 1970, "sút": 1971, "trực_tuyến": 1972, "chuỗi": 1973, "đường_sắt": 1974, "hình_sự": 1975, "Hương": 1976, "W@@": 1977, "xếp_hạng": 1978, "H.": 1979, "ngoại_giao": 1980, "th@@": 1981, "Giải": 1982, "chuyển_nhượng": 1983, "quần_áo": 1984, "học_trò": 1985, "xương": 1986, "xét_xử": 1987, "chín": 1988, "não": 1989, "trình_độ": 1990, "sửa_chữa": 1991, "tâm_sự": 1992, "de": 1993, "đòi_hỏi": 1994, "ấm": 1995, "tuỳ": 1996, "mãi": 1997, "kỷ_luật": 1998, "Vì_thế": 1999, "dinh_dưỡng": 2000, "cập_nhật": 2001, "nhiễm": 2002, "Đã": 2003, "nguyên_liệu": 2004, "0": 2005, "ma": 2006, "đồng_đội": 2007, "nh@@": 2008, "lúc_nào": 2009, "dọc": 2010, "tin_tưởng": 2011, "tiềm_năng": 2012, "chút": 2013, "ném": 2014, "smartphone": 2015, "Phạm_@@": 2016, "nhận_thức": 2017, "trưa": 2018, "huấn_luyện": 2019, "di_tích": 2020, "Australia": 2021, "Hiệp_hội": 2022, "thơm": 2023, "công_chúng": 2024, "hồng": 2025, "bổ_nhiệm": 2026, "chỉ_trích": 2027, "chỉ_số": 2028, "lo@@": 2029, "es": 2030, "Donald_Trump": 2031, "Mẹ": 2032, "tai": 2033, "uy_tín": 2034, "xả": 2035, "M.U": 2036, "dao": 2037, "32": 2038, "quan_sát": 2039, "MC": 2040, "nhiệt_độ": 2041, "Hoà": 2042, "Phát_biểu": 2043, "động_vật": 2044, "cơ_cấu": 2045, "cáo_buộc": 2046, "Quân_đội": 2047, "tham_quan": 2048, "on": 2049, "đam_mê": 2050, "treo": 2051, "en": 2052, "S": 2053, "khoa": 2054, "thời_kỳ": 2055, "thời_hạn": 2056, "thương": 2057, "kín": 2058, "khung": 2059, "bớt": 2060, "cuộc_chiến": 2061, "Tr@@": 2062, "mua_sắm": 2063, "Nữ": 2064, "địa_chỉ": 2065, "Chưa": 2066, "ánh": 2067, "phi": 2068, "nhiệm_kỳ": 2069, "bí_mật": 2070, "nói_chuyện": 2071, "hàng_không": 2072, "Tính": 2073, "tự_động": 2074, "ruột": 2075, "Lực_lượng": 2076, "tranh_chấp": 2077, "khuyến_khích": 2078, "lô": 2079, "Đường": 2080, "ti@@": 2081, "sắt": 2082, "nhé": 2083, "váy": 2084, "sau_này": 2085, "ăn_uống": 2086, "mái": 2087, "cách_mạng": 2088, "pháp_lý": 2089, "o_@@": 2090, "khủng_hoảng": 2091, "liên_lạc": 2092, "thành_phần": 2093, "x": 2094, "t_@@": 2095, "ngụ": 2096, "kính": 2097, "tôm": 2098, "tiêu_chí": 2099, "Cường": 2100, "Kinh_tế": 2101, "lưu_ý": 2102, "cải_cách": 2103, "sắc": 2104, "cố": 2105, "thanh": 2106, "kết_hôn": 2107, "bia": 2108, "kỳ_vọng": 2109, "bàn_giao": 2110, "sốc": 2111, "ngực": 2112, "định_hướng": 2113, "bếp": 2114, "Mọi": 2115, "thi_hành": 2116, "miếng": 2117, "ra_đời": 2118, "Y@@": 2119, "Gần": 2120, "xuyên": 2121, "sốt": 2122, "Thắng": 2123, "Uỷ_viên": 2124, "khúc": 2125, "chim": 2126, "tr@@": 2127, "VFF": 2128, "tổng_thống": 2129, "phỏng_vấn": 2130, "Nhóm": 2131, "BHXH": 2132, "chấm_dứt": 2133, "Canada": 2134, "tắt": 2135, "J@@": 2136, "phòng_chống": 2137, "100%": 2138, "er": 2139, "tiêu": 2140, "thật_sự": 2141, "viện": 2142, "tố_cáo": 2143, "Hải_quân": 2144, "nhận_xét": 2145, "đoạt": 2146, "3@@": 2147, "chuyển_đổi": 2148, "phủ": 2149, "ép": 2150, "nội": 2151, "nhất_định": 2152, "sở": 2153, "Washington": 2154, "Ronaldo": 2155, "ảo": 2156, "vẽ": 2157, "d": 2158, "yêu_thương": 2159, "Hình_ảnh": 2160, "gan": 2161, "ph@@": 2162, "luật_sư": 2163, "vui_vẻ": 2164, "xe_tải": 2165, "trường_học": 2166, "kiến_trúc": 2167, "vết": 2168, "nói_chung": 2169, "nền_tảng": 2170, "Tâm": 2171, "nhà_lãnh_đạo": 2172, "sai_phạm": 2173, "Môi_trường": 2174, "khuyên": 2175, "Rất": 2176, "thả": 2177, "thông": 2178, "pin": 2179, "P": 2180, "chảy": 2181, "Cộng_hoà": 2182, "thủ": 2183, "xuân": 2184, "phó": 2185, "10@@": 2186, "đồng_nghiệp": 2187, "vào_khoảng": 2188, "mơ": 2189, "Đại_hội": 2190, "Người_dân": 2191, "nguyên_tắc": 2192, "i_@@": 2193, "thở": 2194, "giao_lưu": 2195, "triển_lãm": 2196, "Hơn": 2197, "ý": 2198, "kỹ": 2199, "đi_lại": 2200, "ngược": 2201, "CSGT": 2202, "nối": 2203, "2006": 2204, "công_chức": 2205, "khởi_tố": 2206, "trọng_tài": 2207, "hầm": 2208, "cơ": 2209, "phiếu": 2210, "ôtô": 2211, "trừng_phạt": 2212, "Kế_hoạch": 2213, "Gia_đình": 2214, "Bài": 2215, "thùng": 2216, "đậm": 2217, "hiệu_lực": 2218, "Thế_giới": 2219, "Lễ": 2220, "hôn_nhân": 2221, "hiếm": 2222, "thói_quen": 2223, "động_viên": 2224, "to@@": 2225, "âm": 2226, "lưu_thông": 2227, "l": 2228, "công_cộng": 2229, "thế_này": 2230, "mét": 2231, "Công_Thương": 2232, "Nam_@@": 2233, "An": 2234, "Quốc_tế": 2235, "400": 2236, "dẫn_đầu": 2237, "ký_kết": 2238, "đắt": 2239, "lãi": 2240, "tính_toán": 2241, "giấy_phép": 2242, "họp_báo": 2243, "pháo": 2244, "nhà_thầu": 2245, "đỉnh": 2246, "tiếc": 2247, "tự_hào": 2248, "vật_liệu": 2249, "lâu_dài": 2250, "T.": 2251, "vào_cuộc": 2252, "nhắn": 2253, "AFP": 2254, "C.": 2255, "Đài_Loan": 2256, "nghiêm_túc": 2257, "dự_thảo": 2258, "tiêu_cực": 2259, "K": 2260, "Chúng_ta": 2261, "nút": 2262, "hương": 2263, "Hà_Lan": 2264, "Ngọc": 2265, "tắm": 2266, "đại_gia": 2267, "Hệ_thống": 2268, "Khoảng": 2269, "mây": 2270, "trộm": 2271, "trà": 2272, "hài_lòng": 2273, "tải": 2274, "hộp": 2275, "Quang": 2276, "Real_Madrid": 2277, "lợi_thế": 2278, "đền": 2279, "vùng_biển": 2280, "chờ_đợi": 2281, "ia": 2282, "phạm": 2283, "góp": 2284, "N": 2285, "Thanh_tra": 2286, "Văn_@@": 2287, "hợp": 2288, "dựng": 2289, "thuyết_phục": 2290, "Kim_@@": 2291, "the": 2292, "tỷ_số": 2293, "lọt": 2294, "chỉ_huy": 2295, "tốt_đẹp": 2296, "thiên_nhiên": 2297, "L": 2298, "khí_hậu": 2299, "điện_ảnh": 2300, "hệ": 2301, "g": 2302, "w@@": 2303, "một_chút": 2304, "Z@@": 2305, "đám_cưới": 2306, "thiết_lập": 2307, "ống": 2308, "quyết_liệt": 2309, "36": 2310, "nhựa": 2311, "đấu_tranh": 2312, "liên_hệ": 2313, "vật_chất": 2314, "chế_tạo": 2315, "Đồng": 2316, "khen": 2317, "Barca": 2318, "Tùng": 2319, "X": 2320, "cảm_ơn": 2321, "phạm_vi": 2322, "chủ_trì": 2323, "ngọt": 2324, "biểu_hiện": 2325, "2@@": 2326, "Vũ_@@": 2327, "HĐND": 2328, "đa_dạng": 2329, "31": 2330, "Tuy": 2331, "ngư_dân": 2332, "_S@@": 2333, "Xuân": 2334, "lít": 2335, "News": 2336, "Tiến": 2337, "Vũ": 2338, "E": 2339, "bật": 2340, "giấu": 2341, "ý_thức": 2342, "kể_cả": 2343, "bám": 2344, "Champions_League": 2345, "nhân_lực": 2346, "tập_luyện": 2347, "Liverpool": 2348, "có_vẻ": 2349, "bình_quân": 2350, "giây": 2351, "Phong": 2352, "thông_thường": 2353, "Điểm": 2354, "Man_City": 2355, "is@@": 2356, "Real": 2357, "1,@@": 2358, "đội_hình": 2359, "sự_thật": 2360, "hoàn_tất": 2361, "NATO": 2362, "cử_tri": 2363, "cột": 2364, "Châu": 2365, "trưởng_thành": 2366, "taxi": 2367, "trống": 2368, "Úc": 2369, "cử": 2370, "phụ_thuộc": 2371, "50%": 2372, "chiến_sĩ": 2373, "thuyền": 2374, "ngọn": 2375, "tàu_ngầm": 2376, "Al@@": 2377, "Hưng": 2378, "kiện": 2379, "p": 2380, "ngắm": 2381, "TAND": 2382, "giấy_tờ": 2383, "xuất_phát": 2384, "Lần": 2385, "khâu": 2386, "or@@": 2387, "can_thiệp": 2388, "xưa": 2389, "ưu_đãi": 2390, "vất_vả": 2391, "Thực_tế": 2392, "tại_sao": 2393, "bảo_hiểm": 2394, "nhà_báo": 2395, "nước_mắt": 2396, "Nhờ": 2397, "trôi": 2398, "khối_lượng": 2399, "mát": 2400, "xác_minh": 2401, "hôm_qua": 2402, "mâu_thuẫn": 2403, "bình": 2404, "cộng": 2405, "Y": 2406, "làm_sao": 2407, "ý_định": 2408, "nghi_ngờ": 2409, "nhẹ_nhàng": 2410, "Hãng": 2411, "suất": 2412, "Công_nghệ": 2413, "xin_lỗi": 2414, "trừ": 2415, "hằng": 2416, "mệt_mỏi": 2417, "tiệc": 2418, "định_cư": 2419, "bến": 2420, "show": 2421, "đồng_bào": 2422, "as@@": 2423, "đánh_bại": 2424, "đạo_đức": 2425, "tạp_chí": 2426, "nhạc_sĩ": 2427, "ri@@": 2428, "răng": 2429, "Đại_diện": 2430, "khai_mạc": 2431, "tết": 2432, "phụ_trách": 2433, "1.@@": 2434, "ánh_sáng": 2435, "Obama": 2436, "vitamin": 2437, "es@@": 2438, "tổn_thương": 2439, "dính": 2440, "tranh_cãi": 2441, "tuy": 2442, "MV": 2443, "khoảng_cách": 2444, "BV": 2445, "Dân": 2446, "bảo_tồn": 2447, "thuỷ_sản": 2448, "sắp_xếp": 2449, "Thành_uỷ": 2450, "giảm_giá": 2451, "gặp_gỡ": 2452, "giám_khảo": 2453, "Mai": 2454, "li@@": 2455, "2000": 2456, "Xem": 2457, "quyền_lợi": 2458, "dâu": 2459, "Chúng": 2460, "năm_học": 2461, "Hà_@@": 2462, "xung_đột": 2463, "biểu_tình": 2464, "y_@@": 2465, "giày": 2466, "Đáng": 2467, "tuyển_sinh": 2468, "hưu": 2469, "Bước": 2470, "lính": 2471, "phiên_toà": 2472, "bướm": 2473, "Ph@@": 2474, "chấm": 2475, "chứng_khoán": 2476, "đạo": 2477, "vỉa_hè": 2478, "co@@": 2479, "Hoà_Bình": 2480, "kích_thước": 2481, "lan": 2482, "thưởng_thức": 2483, "cải_tạo": 2484, "hoàn_hảo": 2485, "top": 2486, "tức": 2487, "tách": 2488, "thái_độ": 2489, "Trang": 2490, "mốc": 2491, "ly": 2492, "đường_bộ": 2493, "gắn_bó": 2494, "chủ_quyền": 2495, "Dương_@@": 2496, "than": 2497, "khẩn_cấp": 2498, "đóng_cửa": 2499, "al": 2500, "tận_dụng": 2501, "chặn": 2502, "ghi_bàn": 2503, "lần_lượt": 2504, "bất_thường": 2505, "hiệp": 2506, "Lan": 2507, "dày": 2508, "đáp": 2509, "Cái": 2510, "ngược_lại": 2511, "số_liệu": 2512, "khám_phá": 2513, "VTC": 2514, "nhiệt": 2515, "Paris": 2516, "đối_phương": 2517, "tôn_trọng": 2518, "CĐ": 2519, "tế_bào": 2520, "Lâm": 2521, "Chuyện": 2522, "động_lực": 2523, "quảng_bá": 2524, "Ngoại_trưởng": 2525, "Thông_tư": 2526, "2005": 2527, "xuất": 2528, "đa": 2529, "công_cụ": 2530, "Khánh_Hoà": 2531, "Trao_đổi": 2532, "tròn": 2533, "el@@": 2534, "Tân_@@": 2535, "lỗ": 2536, "hành": 2537, "trò_chơi": 2538, "nhiên_liệu": 2539, "bạc": 2540, "Video": 2541, "đuổi": 2542, "Dưới": 2543, "khủng": 2544, "j@@": 2545, "lịch": 2546, "Putin": 2547, "Cần": 2548, "đề_cập": 2549, "Nghĩa": 2550, "MU": 2551, "biến_đổi": 2552, "buôn_bán": 2553, "vươn": 2554, "150": 2555, "quen_thuộc": 2556, "chức_vụ": 2557, "tên_tuổi": 2558, "hạn": 2559, "cực_kỳ": 2560, "đồng_bộ": 2561, "mực": 2562, "đất_đai": 2563, "di_sản": 2564, "Sao": 2565, "Barcelona": 2566, "dự_đoán": 2567, "loại_bỏ": 2568, "mất_tích": 2569, "Nhìn": 2570, "doanh_nhân": 2571, "s_@@": 2572, "is": 2573, "tài_trợ": 2574, "nặng_nề": 2575, "1@@": 2576, "chăn_nuôi": 2577, "sang_trọng": 2578, "Tổ_quốc": 2579, "đặc_trưng": 2580, "2.000": 2581, "tích_hợp": 2582, "Thuỷ": 2583, "Nghiên_cứu": 2584, "Nguyên_nhân": 2585, ".@@": 2586, "săn": 2587, "chìm": 2588, "rắn": 2589, "Làm": 2590, "cân_bằng": 2591, "ro@@": 2592, "Android": 2593, "đậu": 2594, "một_mình": 2595, "sai_lầm": 2596, "bông": 2597, "quyền_lực": 2598, "Messi": 2599, "Thương_mại": 2600, "cảm_nhận": 2601, "hạng_mục": 2602, "Tổng": 2603, "bán_kết": 2604, "dứt_điểm": 2605, "33": 2606, "đĩa": 2607, "định": 2608, "xứng_đáng": 2609, "ra@@": 2610, "Tỉnh_uỷ": 2611, "quyến_rũ": 2612, "cỏ": 2613, "nghiêm": 2614, "tây": 2615, "rộng_rãi": 2616, "17@@": 2617, "quê_hương": 2618, "Quảng_Ngãi": 2619, "hoá_chất": 2620, "tưởng": 2621, "sâu_sắc": 2622, "phát_sinh": 2623, "ngay_lập_tức": 2624, "giới_hạn": 2625, "biệt_thự": 2626, "củ": 2627, "xóm": 2628, "bạo_lực": 2629, "ngầm": 2630, "nhấn": 2631, "us": 2632, "tín_hiệu": 2633, "tượng": 2634, "Huy": 2635, "gương": 2636, "sạt_lở": 2637, "inch": 2638, "giường": 2639, "tin_đồn": 2640, "Đại_sứ": 2641, "trưng_bày": 2642, "Argentina": 2643, "la": 2644, "cờ": 2645, "phục_hồi": 2646, "New_York": 2647, "thần": 2648, "Giang": 2649, "xe_buýt": 2650, "tăng_giá": 2651, "tâm": 2652, "Bằng": 2653, "Kỳ": 2654, "heo": 2655, "Học_viện": 2656, "liên": 2657, "tiểu_học": 2658, "on@@": 2659, "Thể_thao": 2660, "chú_trọng": 2661, "ong": 2662, "Toàn": 2663, "thuỷ_điện": 2664, "quan": 2665, "Kh@@": 2666, "gi@@": 2667, "tư_nhân": 2668, "2019": 2669, "10.000": 2670, "R": 2671, "hot": 2672, "theo_đuổi": 2673, "mở_cửa": 2674, "album": 2675, "tuân_thủ": 2676, "an_@@": 2677, "_L@@": 2678, "Ai": 2679, "trò": 2680, "London": 2681, "34": 2682, "VĐV": 2683, "nguồn_lực": 2684, "hư_hỏng": 2685, "0@@": 2686, "đối_đầu": 2687, "đoàn_kết": 2688, "and": 2689, "Lao_động": 2690, "T&T": 2691, "hội_thảo": 2692, "thận": 2693, "bụi": 2694, "Đông_Nam_Á": 2695, "Phía": 2696, "động": 2697, "độc_giả": 2698, "Báo_cáo": 2699, "biểu_tượng": 2700, "trái_tim": 2701, "khuôn_khổ": 2702, "củng_cố": 2703, "ví_dụ": 2704, "]": 2705, "phân_phối": 2706, "trang_trí": 2707, "BOT": 2708, "ngày_nay": 2709, "kêu": 2710, "Đông_@@": 2711, "làm_ăn": 2712, "mọc": 2713, "Hồi": 2714, "thi_thể": 2715, "ước_tính": 2716, "Liên_Xô": 2717, "đối_thoại": 2718, "H.@@": 2719, "Re@@": 2720, "gia_nhập": 2721, "600": 2722, "le@@": 2723, "euro": 2724, "mỏng": 2725, "chạm": 2726, "phấn_đấu": 2727, "thiên_tai": 2728, "nghiệp_vụ": 2729, "cỡ": 2730, "thử_thách": 2731, "thích_hợp": 2732, "béo": 2733, "tan": 2734, "[": 2735, "F": 2736, "dàn": 2737, "Toà_án": 2738, "Liên_minh": 2739, "người_bệnh": 2740, "Moscow": 2741, "ngạc_nhiên": 2742, "Trương_@@": 2743, "Phải": 2744, "Ngọc_@@": 2745, "sáng_tác": 2746, "quần": 2747, "Khoa_học": 2748, "cm": 2749, "bơi": 2750, "nhan_sắc": 2751, "sơn": 2752, "am@@": 2753, "V": 2754, "Quận": 2755, "nụ": 2756, "phương_thức": 2757, "2004": 2758, "HAGL": 2759, "đông_đảo": 2760, "10%": 2761, "đeo": 2762, "Cup": 2763, "tối_thiểu": 2764, "trung": 2765, "mừng": 2766, "mềm": 2767, "Lãnh_đạo": 2768, "nội_địa": 2769, "15@@": 2770, "kem": 2771, "chưa_thể": 2772, "vững": 2773, "b": 2774, "Minh_@@": 2775, "phạm_tội": 2776, "Phúc": 2777, "tuyệt_đối": 2778, "Bình_Định": 2779, "bác": 2780, "cổ_đông": 2781, "qua_đời": 2782, "Tổng_công_ty": 2783, "niêm_yết": 2784, "Quảng_Bình": 2785, "cứu_hộ": 2786, "G": 2787, "đề_án": 2788, "12@@": 2789, "Phan_@@": 2790, "Mexico": 2791, "lực": 2792, "tiêu_diệt": 2793, "công_viên": 2794, "ng": 2795, "tiêm": 2796, "trang_web": 2797, "siêu_thị": 2798, "n_@@": 2799, "Ai_Cập": 2800, "do@@": 2801, "Ý": 2802, "mổ": 2803, "thất_vọng": 2804, "kịch_bản": 2805, "so_sánh": 2806, "Thường_trực": 2807, "Mourinho": 2808, "sợi": 2809, "37": 2810, "ad@@": 2811, "0,@@": 2812, "Dự_kiến": 2813, "Chi_cục": 2814, "Mar@@": 2815, "Cổ_phần": 2816, "xoay": 2817, "tuần_tra": 2818, "khớp": 2819, "Hơn_nữa": 2820, "xoá": 2821, "Mùa": 2822, "Premier_League": 2823, "nhà_văn": 2824, "chiếm_đoạt": 2825, "minh_bạch": 2826, "muộn": 2827, "lắp_đặt": 2828, "bán_lẻ": 2829, "gợi_cảm": 2830, "va_chạm": 2831, "Thái_Bình_Dương": 2832, "sửa": 2833, "trần": 2834, "trò_chuyện": 2835, "tính_chất": 2836, "Nước": 2837, "bát": 2838, "Tập": 2839, "Microsoft": 2840, "Thanh_@@": 2841, "Quân": 2842, "lợi_dụng": 2843, "38": 2844, "qu@@": 2845, "mảng": 2846, "Đại_@@": 2847, "_B@@": 2848, "mộ": 2849, "trực_thuộc": 2850, "GS": 2851, "Cầu": 2852, "sản_lượng": 2853, "kiêm": 2854, "Thêm": 2855, "chiến": 2856, "mỡ": 2857, "Tin": 2858, "hài": 2859, "tư_tưởng": 2860, "kích_thích": 2861, "1,5": 2862, "ấp": 2863, "khẩn_trương": 2864, "Hiếu": 2865, "vùng_đất": 2866, "Kể": 2867, "Nhà_máy": 2868, "từ_thiện": 2869, "canh": 2870, "góp_mặt": 2871, "Thái_Bình": 2872, "16@@": 2873, "động_thái": 2874, "tại_chỗ": 2875, "nói_riêng": 2876, "ngôn_ngữ": 2877, "Lý_@@": 2878, "Liên_quan": 2879, "bắt_buộc": 2880, "thu_hoạch": 2881, "dâng": 2882, "Thảo": 2883, "Nông_nghiệp": 2884, "phát_sóng": 2885, "Thu": 2886, "hành_tinh": 2887, "đẻ": 2888, "bốc": 2889, "âm_thanh": 2890, "Thấy": 2891, "thừa": 2892, "20%": 2893, "khuôn_mặt": 2894, "Xuân_@@": 2895, "tràn": 2896, "quá_khứ": 2897, "Đi": 2898, "hứa": 2899, "cụm": 2900, "Hàn": 2901, "kết": 2902, "hầu_như": 2903, "Gia_Lai": 2904, "đợi": 2905, "xác": 2906, "mặt_trời": 2907, "thức": 2908, "Có_lẽ": 2909, "mầm_non": 2910, "đường_phố": 2911, "phong_độ": 2912, "lò": 2913, "vải": 2914, "hứa_hẹn": 2915, "Hải_quan": 2916, "dông": 2917, "Phần": 2918, "đại": 2919, "Honda": 2920, "website": 2921, "chuyên_ngành": 2922, "Le@@": 2923, "khơi": 2924, "áp": 2925, "_": 2926, "thực": 2927, "hải_quân": 2928, "Ngô_@@": 2929, "xe_tăng": 2930, "khói": 2931, "toả": 2932, "Đào_tạo": 2933, "thuốc_lá": 2934, "châu": 2935, "Nhân": 2936, "virus": 2937, "re@@": 2938, "Vân": 2939, "cá_tính": 2940, "bọ": 2941, "Myanmar": 2942, "giam": 2943, "tốn": 2944, "phi_công": 2945, "Gi@@": 2946, "cam": 2947, "lọc": 2948, "el": 2949, "Đà_Lạt": 2950, "cứng": 2951, "r": 2952, "gọn": 2953, "TV": 2954, "Tây_Nguyên": 2955, "giáp": 2956, "Xe": 2957, "văn": 2958, "trâu": 2959, "Đừng": 2960, "lừa_đảo": 2961, "thực_thi": 2962, "cân_nhắc": 2963, "Hải_Dương": 2964, "Văn": 2965, "Nhân_dân": 2966, "tông": 2967, "do_đó": 2968, "_M@@": 2969, "tương_đối": 2970, "đối_phó": 2971, "mỏ": 2972, "hẹn": 2973, "con_cái": 2974, "môi": 2975, "30%": 2976, "trình_bày": 2977, "Thường_vụ": 2978, "chuyển_giao": 2979, "Thăng_Long": 2980, "tham_khảo": 2981, "ghép": 2982, "u_@@": 2983, "Lào_Cai": 2984, "CĐV": 2985, "ana": 2986, "phe": 2987, "thông_điệp": 2988, "5.000": 2989, "khó_chịu": 2990, "ô": 2991, "SEA_Games": 2992, "nhãn": 2993, "sập": 2994, "cô_giáo": 2995, "khiếu_nại": 2996, "Quảng_Trị": 2997, "gánh": 2998, "55": 2999, "Mình": 3000, "BTC": 3001, "cắm": 3002, "THCS": 3003, "đồng_minh": 3004, "co": 3005, "tiêu_biểu": 3006, "ngăn": 3007, "Tổng_giám_đốc": 3008, "xe_đạp": 3009, "đài": 3010, "chứng": 3011, "14@@": 3012, "biên_bản": 3013, "kh@@": 3014, "Đêm": 3015, "Nha_Trang": 3016, "diễn_đàn": 3017, "tổng_thể": 3018, "Quốc": 3019, "48": 3020, "Ho@@": 3021, "bất_chấp": 3022, "Trần_Văn_@@": 3023, "trái_cây": 3024, "dẫn_dắt": 3025, "thủ_môn": 3026, "An_ninh": 3027, "Do_vậy": 3028, "loại_hình": 3029, "nướng": 3030, "chanh": 3031, "3.000": 3032, "Ar@@": 3033, "Nguyễn_Xuân_Phúc": 3034, "nhà_nghiên_cứu": 3035, "Rồi": 3036, "thẩm_định": 3037, "il@@": 3038, "chai": 3039, "ho@@": 3040, "lập_tức": 3041, "khoẻ_mạnh": 3042, "phân_biệt": 3043, "đuôi": 3044, "tư_cách": 3045, "bằng_chứng": 3046, "khởi_nghiệp": 3047, "tài_nguyên": 3048, "trạng_thái": 3049, "cắt_giảm": 3050, "phủ_nhận": 3051, "dừa": 3052, "ngựa": 3053, "hỏng": 3054, "trại": 3055, "chế": 3056, "che": 3057, "đa_số": 3058, "nội_bộ": 3059, "khoảnh_khắc": 3060, "chấp_hành": 3061, "Cuba": 3062, "viễn_thông": 3063, "Bộ_Chính_trị": 3064, "ac@@": 3065, "tour": 3066, "ứng_viên": 3067, "Cà_Mau": 3068, "ch": 3069, "giật": 3070, "Hy_Lạp": 3071, "chốt": 3072, "Ví_dụ": 3073, "Xã": 3074, "ao": 3075, "AP": 3076, "cao_tốc": 3077, "kinh": 3078, "HS": 3079, "Hằng": 3080, "Khánh": 3081, "tiên_tiến": 3082, "đảng_viên": 3083, "trộn": 3084, "GD-ĐT": 3085, "O": 3086, "khởi_động": 3087, "ly_hôn": 3088, "Đầu": 3089, "thu_thập": 3090, "Bỉ": 3091, "nhạy_cảm": 3092, "cánh_cứng": 3093, "đại_lý": 3094, "hội_nhập": 3095, "mạng_lưới": 3096, "di_dời": 3097, "nấm": 3098, "Trước_đây": 3099, "800": 3100, "Ba_Lan": 3101, "không_quân": 3102, "thợ": 3103, "as": 3104, "tỉ_lệ": 3105, "tổng_cộng": 3106, "Nam_Định": 3107, "giảng_dạy": 3108, "Hiền": 3109, "tướng": 3110, "Bồ_Đào_Nha": 3111, "đề_tài": 3112, "ước": 3113, "phun": 3114, "nhân_sự": 3115, "bẩn": 3116, "Mai_@@": 3117, "thải": 3118, "đồng_tiền": 3119, "khuyến_cáo": 3120, "42": 3121, "bài_học": 3122, "1/@@": 3123, "vi_khuẩn": 3124, "Tài_nguyên": 3125, "Sông": 3126, "năng_suất": 3127, "thiết_thực": 3128, "bọn": 3129, "công_bằng": 3130, "ngại": 3131, "Trận": 3132, "sân_nhà": 3133, "đôi_khi": 3134, "mượn": 3135, "tập_trận": 3136, "hoa_hậu": 3137, "Truyền_thông": 3138, "tố": 3139, "BHYT": 3140, "Ma@@": 3141, "hắn": 3142, "@@": 3143, "Chia_sẻ": 3144, "nghĩa_vụ": 3145, "xúc_động": 3146, "đành": 3147, "at@@": 3148, "lộ_trình": 3149, "nghề_nghiệp": 3150, "cơ_sở_hạ_tầng": 3151, "hợp_pháp": 3152, "lứa": 3153, "phổi": 3154, "Á.": 3155, "Bản": 3156, "HĐQT": 3157, "sáu": 3158, "xét_nghiệm": 3159, "01": 3160, "Q.": 3161, "căn_bệnh": 3162, "bỏ_qua": 3163, "tu@@": 3164, "khổ": 3165, "công_văn": 3166, "trọng_lượng": 3167, "quần_đảo": 3168, "học_viên": 3169, "Nhiệt_độ": 3170, "Thái_Nguyên": 3171, "toà_án": 3172, "di@@": 3173, "tay_vợt": 3174, "ar": 3175, "tương_ứng": 3176, "Bùi_@@": 3177, "bàn_tay": 3178, "Co@@": 3179, "ngâm": 3180, "thú": 3181, "truy_cập": 3182, "khẩu": 3183, "triệu_chứng": 3184, "nhập_viện": 3185, "tháp": 3186, "An_@@": 3187, "thân_thiện": 3188, "mai": 3189, "đấu_giá": 3190, "65": 3191, "m_@@": 3192, "tiến_bộ": 3193, "Vấn_đề": 3194, "2003": 3195, "hàng_xóm": 3196, "thí_điểm": 3197, "lu@@": 3198, "đồng_hành": 3199, "U19": 3200, "giấc": 3201, "39": 3202, "Khu_vực": 3203, "An@@": 3204, "trung_ương": 3205, "man": 3206, "bạn_đọc": 3207, "Cứ": 3208, "Đặng_@@": 3209, "mạch": 3210, "ốc": 3211, "Trần": 3212, "thờ": 3213, "13@@": 3214, "internet": 3215, "xăng_dầu": 3216, "ngờ": 3217, "đáy": 3218, "chuối": 3219, "đỡ": 3220, "phong_phú": 3221, "bị_can": 3222, "Cuối": 3223, "xử": 3224, "Trường_Sa": 3225, "Lê_Văn_@@": 3226, "so@@": 3227, "lông": 3228, "APEC": 3229, "lưu": 3230, "Tổng_hợp": 3231, "phòng_không": 3232, "đột_phá": 3233, "Huỳnh_@@": 3234, "Cuối_cùng": 3235, "thực_tiễn": 3236, "Đỗ_@@": 3237, "biên_chế": 3238, "vui_chơi": 3239, "ma@@": 3240, "Olympic": 3241, "bí_ẩn": 3242, "Bắc_Ninh": 3243, "Nên": 3244, "non": 3245, "chặng": 3246, "câu_lạc_bộ": 3247, "Hôm": 3248, "Phụ_nữ": 3249, "chừng": 3250, "đẳng_cấp": 3251, "chinh_phục": 3252, "hôn": 3253, "Đúng": 3254, "75": 3255, "hiệu": 3256, "anh_chàng": 3257, "hậu": 3258, "Lễ_hội": 3259, "phiến_quân": 3260, "đường_dây": 3261, "Di@@": 3262, "chi_trả": 3263, "Thái_@@": 3264, "tạm_thời": 3265, "bỏ_phiếu": 3266, "thi_đua": 3267, "thẩm_mỹ": 3268, "Tổ": 3269, "diễn_xuất": 3270, "Không_quân": 3271, "Lý": 3272, "BĐS": 3273, "tiêu_hoá": 3274, "Nh@@": 3275, "Long_An": 3276, "chủ_nhân": 3277, "chứng_tỏ": 3278, "thuê_bao": 3279, "Xin": 3280, "vướng_mắc": 3281, "showbiz": 3282, "46": 3283, "hỗn_hợp": 3284, "trọng_điểm": 3285, "thích_thú": 3286, "Dân_chủ": 3287, "it@@": 3288, "cẩn_thận": 3289, "đầm": 3290, "chữa_cháy": 3291, "tiết_mục": 3292, "bơm": 3293, "Toyota": 3294, "Đề_án": 3295, "đánh_dấu": 3296, "Tú": 3297, "chuột": 3298, "CNTT": 3299, "dáng": 3300, "1990": 3301, "2-3": 3302, "binh_sĩ": 3303, "điển_hình": 3304, "Ng@@": 3305, "2,@@": 3306, "Bắc_@@": 3307, "hậu_vệ": 3308, "dấu": 3309, "nghiện": 3310, "Sơn_La": 3311, "hiến": 3312, "Nhà_Trắng": 3313, "giàu_có": 3314, "700": 3315, "Viettel": 3316, "đình_chỉ": 3317, "đối_lập": 3318, "nở": 3319, "dự_định": 3320, "et@@": 3321, "ơi": 3322, "nữ_sinh": 3323, "gỡ": 3324, "chấp_thuận": 3325, "sưu_tập": 3326, "Tư_pháp": 3327, "Tuy_vậy": 3328, "công_nghệ_cao": 3329, "sen": 3330, "5%": 3331, "giáo_sư": 3332, "Đài": 3333, "đối_diện": 3334, "GDP": 3335, "vở": 3336, "ứng_xử": 3337, "bảo_quản": 3338, "hẹn_hò": 3339, "gần_gũi": 3340, "BS": 3341, "ta@@": 3342, "Hồng_@@": 3343, "Công": 3344, "đo": 3345, "rạng": 3346, "Bình_Thuận": 3347, "trị": 3348, "Park": 3349, "văn_minh": 3350, "cải_tiến": 3351, "bảo_mật": 3352, "us@@": 3353, "bộ_máy": 3354, "mẹ_con": 3355, "phòng_thủ": 3356, "Xã_hội": 3357, "tập_huấn": 3358, "lãng_mạn": 3359, "biến_động": 3360, "Quý": 3361, "gạch": 3362, "nhất_trí": 3363, "suối": 3364, "tiết": 3365, "múa": 3366, "chúc_mừng": 3367, "người_lớn": 3368, "Nội_vụ": 3369, "gã": 3370, "leo": 3371, "vết_thương": 3372, "yên_tâm": 3373, "huỷ": 3374, "Lộc": 3375, "Lưu_@@": 3376, "ab@@": 3377, "Chi": 3378, "Quỳnh": 3379, "ước_mơ": 3380, "lãng_phí": 3381, "Car@@": 3382, "ngón": 3383, "phát_động": 3384, "id@@": 3385, "không_kích": 3386, "ẩm_thực": 3387, "hy_sinh": 3388, "Tổng_Giám_đốc": 3389, "hòn": 3390, "viên_chức": 3391, "đau_đớn": 3392, "chém": 3393, "Ninh_Bình": 3394, "Thật": 3395, "dạ_dày": 3396, "TP.HCM.": 3397, "Hiệp": 3398, "nhầm": 3399, "Vũng_Tàu": 3400, "giá_cả": 3401, "mặt_đất": 3402, "ine": 3403, "Afghanistan": 3404, "tình_báo": 3405, "Hạ_Long": 3406, "chi_nhánh": 3407, "liên_minh": 3408, "ensis": 3409, "120": 3410, "quản_trị": 3411, "chi_tiêu": 3412, "nồi": 3413, "quốc_lộ": 3414, "43": 3415, "lý_tưởng": 3416, "ap@@": 3417, "cúp": 3418, "dốc": 3419, "trẻ_trung": 3420, "son": 3421, "Cao_@@": 3422, "ruộng": 3423, "cấu_trúc": 3424, "HIV": 3425, "Phú_Thọ": 3426, "dập": 3427, "nhì": 3428, "Tàu": 3429, "Phật": 3430, "học_bổng": 3431, "dấu_ấn": 3432, "khắp_nơi": 3433, "nghỉ_ngơi": 3434, "dân_sự": 3435, "Tài": 3436, "al-@@": 3437, "đ@@": 3438, "gãy": 3439, "yên": 3440, "nam_giới": 3441, "đói": 3442, "Se@@": 3443, "Thuỵ_Điển": 3444, "kịch": 3445, "Trường_hợp": 3446, "anh_hùng": 3447, "phong": 3448, "Đại": 3449, "Trả_lời": 3450, "thu_giữ": 3451, "bình_chọn": 3452, "áo_dài": 3453, "bất_cập": 3454, "khoẻ": 3455, "vệ_tinh": 3456, "..": 3457, "nguyện_vọng": 3458, "Chủ_nhiệm": 3459, "nhắc_nhở": 3460, "châu_Phi": 3461, "bản_quyền": 3462, "2.@@": 3463, "vận": 3464, "um": 3465, "giảng_viên": 3466, "dân_gian": 3467, "trực_thăng": 3468, "Vàng": 3469, "Liên_đoàn": 3470, "mèo": 3471, "Italy": 3472, "thân_thiết": 3473, "căng": 3474, "Sh@@": 3475, "Giờ": 3476, "ứng_phó": 3477, "Hầu_hết": 3478, "sức_ép": 3479, "1999": 3480, "ag@@": 3481, "v": 3482, "Lương": 3483, "Trung_@@": 3484, "hài_hước": 3485, "Tiếp": 3486, "tuyển_dụng": 3487, "quãng": 3488, "ngõ": 3489, "Liên": 3490, "III": 3491, "le": 3492, "ic@@": 3493, "đ": 3494, "ớt": 3495, "danh_mục": 3496, "ngọt_ngào": 3497, "một_nửa": 3498, "cố_tình": 3499, "Vận_tải": 3500, "tỷ_phú": 3501, "tin_tức": 3502, "2002": 3503, "bản_đồ": 3504, "Q@@": 3505, "trụ": 3506, "Tối": 3507, "nhịp": 3508, "47": 3509, "người_nhà": 3510, "100.000": 3511, "An_Giang": 3512, "41": 3513, "Phú_Yên": 3514, "Nếu_như": 3515, "to_lớn": 3516, "Bo@@": 3517, "tuyệt": 3518, "đà": 3519, "tiểu": 3520, "U": 3521, "dãy": 3522, "hiện_diện": 3523, "Vương_@@": 3524, "ùn_tắc": 3525, "HCV": 3526, "huyền_thoại": 3527, "say": 3528, "na": 3529, "Mo@@": 3530, "lạc": 3531, "44": 3532, "Bé": 3533, "dân_chủ": 3534, "z": 3535, "im@@": 3536, "đồn": 3537, "hải_sản": 3538, "động_đất": 3539, "Plus": 3540, "49": 3541, "Bình_Nhưỡng": 3542, "vắng": 3543, "đô_la": 3544, "Thiên_@@": 3545, "Trung_Đông": 3546, "nước_thải": 3547, "PCCC": 3548, "trinh_sát": 3549, "dán": 3550, "đón_nhận": 3551, "nhắm": 3552, "lành_mạnh": 3553, "64": 3554, "63": 3555, "Dung": 3556, "xe_khách": 3557, "cây_xanh": 3558, "học_hỏi": 3559, "trượt": 3560, "thảm_hoạ": 3561, "Lâm_Đồng": 3562, "Đảng_uỷ": 3563, "Thực_hiện": 3564, "tinh_tế": 3565, "lưu_trữ": 3566, "huy_chương": 3567, "tiệm": 3568, "phá_huỷ": 3569, "phổ_thông": 3570, "quy_chế": 3571, "Trần_Thị_@@": 3572, "tư_duy": 3573, "khách_quan": 3574, "trọng_tâm": 3575, "Lo@@": 3576, "Liên_hợp_quốc": 3577, "thẳng_thắn": 3578, "xuất_bản": 3579, "hữu_nghị": 3580, "Sinh": 3581, "từ_bỏ": 3582, "2001": 3583, "Nhận": 3584, "thực_chất": 3585, "mụn": 3586, "at": 3587, "trùm": 3588, "sinh_nhật": 3589, "trang_điểm": 3590, "ngoại_hình": 3591, "Á_hậu": 3592, "Sa@@": 3593, "Top": 3594, "Công_Phượng": 3595, "Mức": 3596, "phần_nào": 3597, "chỉ_định": 3598, "kim": 3599, "Thịnh": 3600, "51": 3601, "vô_tình": 3602, "os@@": 3603, "ông_bà": 3604, "khống_chế": 3605, "Tiếng": 3606, "hiểu_biết": 3607, "Bác_sĩ": 3608, "làm_đẹp": 3609, "rối_loạn": 3610, "su@@": 3611, "huấn_luyện_viên": 3612, "ne@@": 3613, "sơ_thẩm": 3614, "duyên": 3615, "vị_thế": 3616, "đăng_quang": 3617, "lừa": 3618, "250": 3619, "nhìn_nhận": 3620, "mật": 3621, "Bác": 3622, "nông_sản": 3623, "thập_niên": 3624, "nghỉ_dưỡng": 3625, "Giáo_sư": 3626, "Bar@@": 3627, "ạ": 3628, "linh_hoạt": 3629, "nếu_như": 3630, "bọc": 3631, "tham_mưu": 3632, "chiến_thuật": 3633, "miễn": 3634, "sa": 3635, "te@@": 3636, "lậu": 3637, "đồng_nghĩa": 3638, "tính_cách": 3639, "song_phương": 3640, "Hạnh": 3641, "xôn_xao": 3642, "N.": 3643, "Doanh_nghiệp": 3644, "dữ_dội": 3645, "tranh_thủ": 3646, "Cậu": 3647, "chất_thải": 3648, "tre": 3649, "Su@@": 3650, "vận_động_viên": 3651, "chiến_trường": 3652, "luật_pháp": 3653, "20.000": 3654, "54": 3655, "Nghe": 3656, "se@@": 3657, "sôi_động": 3658, "trang_thiết_bị": 3659, "Italia": 3660, "Đại_tá": 3661, "Hà_Đông": 3662, "52": 3663, "km/h": 3664, "Lê_Thị_@@": 3665, "lạm_phát": 3666, "P.": 3667, "sổ": 3668, "Twitter": 3669, "nội_thất": 3670, "Bắc_Giang": 3671, "U.": 3672, "cống_hiến": 3673, "đồi": 3674, "thổi": 3675, "Lâm_@@": 3676, "chiến_binh": 3677, "năng_động": 3678, "ina": 3679, "eo": 3680, "văn_học": 3681, "dự_phòng": 3682, "chào": 3683, "VTV": 3684, "đoán": 3685, "cục": 3686, "bồi_dưỡng": 3687, "lẽ": 3688, "chênh_lệch": 3689, "xe_hơi": 3690, "quá_tải": 3691, "gia_vị": 3692, "đối_ngoại": 3693, "can": 3694, "phòng_ngự": 3695, "Vi@@": 3696, "thầy_trò": 3697, "Chủ": 3698, "Kiểm_tra": 3699, "Windows": 3700, "tức_là": 3701, "tím": 3702, "Hà_Giang": 3703, "am": 3704, "quốc": 3705, "bấm": 3706, "đền_bù": 3707, "cổ_vũ": 3708, "Qu@@": 3709, "Bây_giờ": 3710, "nắng_nóng": 3711, "Quang_@@": 3712, "hiện_hành": 3713, "diệt": 3714, "tổ_hợp": 3715, "Hiệu_trưởng": 3716, "Pakistan": 3717, "công_lập": 3718, "công_nghệ_thông_tin": 3719, "Khoa": 3720, "trước_mắt": 3721, "m3": 3722, "70%": 3723, "Lịch_sử": 3724, "FIFA": 3725, "k_@@": 3726, "tính_mạng": 3727, "Thời_điểm": 3728, "dài_hạn": 3729, "trục": 3730, "La_@@": 3731, "bắt_tay": 3732, "Phú": 3733, "kiên_quyết": 3734, "khởi_công": 3735, "tiến_sĩ": 3736, "Ảnh_@@": 3737, "trân_trọng": 3738, "lắp": 3739, "bác_sỹ": 3740, "thường_trực": 3741, "doanh_số": 3742, "máy_móc": 3743, "thắc_mắc": 3744, "Tờ": 3745, "làm_nên": 3746, "nghị_quyết": 3747, "72": 3748, "iPad": 3749, "Tổng_Bí_thư": 3750, "Nguyễn": 3751, "rạp": 3752, "To@@": 3753, "Quốc_lộ": 3754, "đứt": 3755, "rèn_luyện": 3756, "bán_đảo": 3757, "chè": 3758, "Áo": 3759, "56": 3760, "trọ": 3761, "Luật_sư": 3762, "bu@@": 3763, "tin_cậy": 3764, "So": 3765, "Chánh": 3766, "giao_tiếp": 3767, "Bảo_tàng": 3768, "Liên_bang": 3769, "thắt": 3770, "trang_trại": 3771, "thần_kinh": 3772, "mo@@": 3773, "vương": 3774, "Hải_@@": 3775, "giữ_gìn": 3776, "....": 3777, "hoá_đơn": 3778, "rét": 3779, "vui_mừng": 3780, "cách_thức": 3781, "L.": 3782, "online": 3783, "Mặt_trận": 3784, "cung_ứng": 3785, "cước": 3786, "em@@": 3787, "chúc": 3788, "Việt_@@": 3789, "T.@@": 3790, "Hôm_nay": 3791, "giờ_đây": 3792, "Công_@@": 3793, "vững_chắc": 3794, "dịch_bệnh": 3795, "ak@@": 3796, "tỏi": 3797, "Võ_@@": 3798, "ứng_cử_viên": 3799, "hội_đồng": 3800, "đàn_bà": 3801, "ẩm": 3802, "Chỉ_đạo": 3803, "dạo": 3804, "NN": 3805, "khôi_phục": 3806, "chẩn_đoán": 3807, "à": 3808, "Triển_lãm": 3809, "kỹ_sư": 3810, "Hiệp_định": 3811, "cảm_hứng": 3812, "Đồng_Tháp": 3813, "điện_thoại_di_động": 3814, "quản_lý_nhà_nước": 3815, "thập_kỷ": 3816, "tàu_sân_bay": 3817, "HĐXX": 3818, "ir@@": 3819, "rực_rỡ": 3820, "LHQ": 3821, "30.000": 3822, "Trạm": 3823, "thắng_lợi": 3824, "Bị": 3825, "sân_chơi": 3826, "Công_tác": 3827, "A.": 3828, "Kiên_Giang": 3829, "bê_tông": 3830, "cua": 3831, "chip": 3832, "lạm_dụng": 3833, "chất_liệu": 3834, "giám_định": 3835, "đường_cao_tốc": 3836, "Yên_Bái": 3837, "email": 3838, "sôi": 3839, "lý_giải": 3840, "Cuộc_sống": 3841, "MT": 3842, "voi": 3843, "ang": 3844, "nhí": 3845, "Đắk_Lắk": 3846, "NHNN": 3847, "Tây_@@": 3848, "CN": 3849, "Milan": 3850, "sợ_hãi": 3851, "dưỡng": 3852, "Nhà_hát": 3853, "ng_@@": 3854, "18@@": 3855, "4.000": 3856, "nhiệt_tình": 3857, "thân_hình": 3858, "đòn": 3859, "nát": 3860, "triệt_để": 3861, "CEO": 3862, "đặc_thù": 3863, "đằng": 3864, "Tiến_sĩ": 3865, "khăn": 3866, "xăm": 3867, "Thị_@@": 3868, "lắng_nghe": 3869, "V-League": 3870, "Tất_nhiên": 3871, "hang": 3872, "Ro@@": 3873, "De@@": 3874, "tiến_trình": 3875, "_C@@": 3876, "Uber": 3877, "quan_niệm": 3878, "phanh": 3879, "Phim": 3880, "TT": 3881, "So@@": 3882, "Thuận": 3883, "phẩm": 3884, "Hậu": 3885, "Câu_chuyện": 3886, "Mặt_khác": 3887, "khuyết_tật": 3888, "Ne@@": 3889, "Vịnh": 3890, "Long_@@": 3891, "cao_điểm": 3892, "Galaxy": 3893, "Toà": 3894, "Phạm_Văn_@@": 3895, "Hay": 3896, "Bản_thân": 3897, "Dân_số": 3898, "lớp_học": 3899, "kế": 3900, "hệ_điều_hành": 3901, "lý": 3902, "2,5": 3903, "hổ": 3904, "ol@@": 3905, "vòng_loại": 3906, "bi@@": 3907, "hàm_lượng": 3908, "thực_trạng": 3909, "Đa_khoa": 3910, "Am@@": 3911, "Đinh_@@": 3912, "Cầu_Giấy": 3913, "20@@": 3914, "te": 3915, "đỉnh_cao": 3916, "rác_thải": 3917, "giải_cứu": 3918, "dồn": 3919, "Tokyo": 3920, "thành_tựu": 3921, "40%": 3922, "đánh_bắt": 3923, "kim_loại": 3924, "Nokia": 3925, "đồng_tình": 3926, "TN": 3927, "ngộ_độc": 3928, "Đảng_bộ": 3929, "đột_ngột": 3930, "gia": 3931, "80%": 3932, "Cây": 3933, "Công_nghiệp": 3934, "container": 3935, "tôn": 3936, "CSĐT": 3937, "sát_hại": 3938, "Đại_sứ_quán": 3939, "tôn_giáo": 3940, "sạc": 3941, "lỡ": 3942, "53": 3943, "Quả": 3944, "trọn": 3945, "số_phận": 3946, "Nội_dung": 3947, "vịnh": 3948, "đầu_mối": 3949, "lát": 3950, "trích": 3951, "62": 3952, "tiền_mặt": 3953, "nóng_bỏng": 3954, "chất_vấn": 3955, "Tuấn_Anh": 3956, "Tân": 3957, "Li@@": 3958, "đối": 3959, "Dùng": 3960, "f": 3961, "nếp": 3962, "BKS": 3963, "chẳng_hạn": 3964, "Câu": 3965, "bảy": 3966, "hành_lang": 3967, "tôn_vinh": 3968, "truy_tố": 3969, "nước_sạch": 3970, "nâu": 3971, "vạn": 3972, "Trấn_Thành": 3973, "02": 3974, "Hoàng_Anh": 3975, "50.000": 3976, "John_@@": 3977, "Hoàn_Kiếm": 3978, "cực_đoan": 3979, "ul@@": 3980, "đặc_điểm": 3981, "Tiền_Giang": 3982, "bận_rộn": 3983, "mê": 3984, "Quy_hoạch": 3985, "băn_khoăn": 3986, "thời_đại": 3987, "ổ": 3988, "Sang": 3989, "thực_hành": 3990, "Tương_tự": 3991, "Tư": 3992, "3.@@": 3993, "trung_vệ": 3994, "ed@@": 3995, "sinh_học": 3996, "Lý_do": 3997, "loa": 3998, "Thương": 3999, "Hội_An": 4000, "dao_động": 4001, "gục": 4002, "Bình_@@": 4003, "Chung": 4004, "giảm_thiểu": 4005, "binh": 4006, "đấu_thầu": 4007, "trái_phiếu": 4008, "nhà_cửa": 4009, "Me@@": 4010, "tác_chiến": 4011, "có_khi": 4012, "xâm_nhập": 4013, "sh@@": 4014, "M.": 4015, "tiền_lương": 4016, "Châu_Âu": 4017, "mật_độ": 4018, "huyết_áp": 4019, "cản_trở": 4020, "Muốn": 4021, "vây": 4022, "58": 4023, "xuống_cấp": 4024, "dự_trữ": 4025, "quy": 4026, "In@@": 4027, "thằng": 4028, "Loại": 4029, "cô_dâu": 4030, "Nơi": 4031, "Đạt": 4032, "Hong_Kong": 4033, "tổng_kết": 4034, "lùi": 4035, "đồ_ăn": 4036, "đề_cử": 4037, "cao_su": 4038, "trao_tặng": 4039, "lấp": 4040, "2%": 4041, "vướng": 4042, "học_phí": 4043, "AFF": 4044, "_H@@": 4045, "độc_hại": 4046, "tình_nguyện": 4047, "1995": 4048, "Quốc_@@": 4049, "ho": 4050, "Tỉnh": 4051, "cân_đối": 4052, "Sẽ": 4053, "Trịnh_@@": 4054, "ter@@": 4055, "cửa_khẩu": 4056, "10/@@": 4057, "di_cư": 4058, "khéo_léo": 4059, "nổi_dậy": 4060, "1%": 4061, "FPT": 4062, "Ford": 4063, "thận_trọng": 4064, "chiêu": 4065, "Trà": 4066, "vượt_trội": 4067, "Clip": 4068, "90%": 4069, "ám_ảnh": 4070, "chả": 4071, "bù": 4072, "3%": 4073, "Phương_@@": 4074, "sáng_kiến": 4075, "cành": 4076, "xuất_xứ": 4077, "California": 4078, "hải_quan": 4079, "VOV": 4080, "Lạng_Sơn": 4081, "Ko@@": 4082, "phòng_ngừa": 4083, "Tottenham": 4084, "dọn": 4085, "vịt": 4086, "Vừa": 4087, "hương_vị": 4088, "mục": 4089, "ngăn_ngừa": 4090, "Tại_sao": 4091, "Hưng_Yên": 4092, "tham_vọng": 4093, "tủ": 4094, "bởi_vì": 4095, "Quỹ": 4096, "giá_thành": 4097, "Du@@": 4098, "cống": 4099, "sáng_lập": 4100, "sa@@": 4101, "si@@": 4102, "ngoại_tệ": 4103, "vi@@": 4104, "girl": 4105, "Mà": 4106, "Đất": 4107, "khởi_đầu": 4108, "Neymar": 4109, "ni@@": 4110, "đựng": 4111, "3,@@": 4112, "Hu@@": 4113, "d_@@": 4114, "nghiêng": 4115, "va": 4116, "Quá_trình": 4117, "Lương_@@": 4118, "nhắn_tin": 4119, "1998": 4120, "T.Ư": 4121, "bản_lĩnh": 4122, "Bảo_vệ": 4123, "phơi": 4124, "mỹ_phẩm": 4125, "4.@@": 4126, "cúm": 4127, "Vụ_việc": 4128, "et": 4129, "hồi_phục": 4130, "en_@@": 4131, "thăm_dò": 4132, "Bức": 4133, "Gia_@@": 4134, "không_những": 4135, "ghé": 4136, "giải_toả": 4137, "Loan": 4138, "im_lặng": 4139, "Po@@": 4140, "Juventus": 4141, "1-2": 4142, "bác_bỏ": 4143, "khu_phố": 4144, "ki@@": 4145, "suy_giảm": 4146, "Hoa_@@": 4147, "ngưỡng": 4148, "Dự_báo": 4149, "Ngôi": 4150, "67": 4151, "tệ": 4152, "nhánh": 4153, "Nhi": 4154, "tháo_gỡ": 4155, "liều": 4156, "bo@@": 4157, "Thuỵ_Sĩ": 4158, "Euro": 4159, "rủ": 4160, "Thư": 4161, "Bảo": 4162, "Ban_đầu": 4163, "cắn": 4164, "cất": 4165, "VNPT": 4166, "móng": 4167, "Diễn_đàn": 4168, "Giới": 4169, "đống": 4170, "trộm_cắp": 4171, "Thanh_niên": 4172, "5/@@": 4173, "chi@@": 4174, "radar": 4175, "Hội_thảo": 4176, "ci@@": 4177, "Giải_thưởng": 4178, "1997": 4179, "Lu@@": 4180, "đình": 4181, "đau_đầu": 4182, "km²": 4183, "đặc_sản": 4184, "cửa_sổ": 4185, "_G@@": 4186, "Q": 4187, "Mẫu": 4188, "la@@": 4189, "Lời": 4190, "mưa_rào": 4191, "phản_hồi": 4192, "Chính_quyền": 4193, "Quỷ": 4194, "tỉ_số": 4195, "vũ_trụ": 4196, "kinh_hoàng": 4197, "om@@": 4198, "thị_phần": 4199, "Tới": 4200, "chuyền": 4201, "chức_danh": 4202, "bưởi": 4203, "rao": 4204, "cay": 4205, "Vĩnh_@@": 4206, "Venezuela": 4207, "cố_định": 4208, "sáp_nhập": 4209, "chủ_sở_hữu": 4210, "danh_tiếng": 4211, "gói_thầu": 4212, "kỳ_lạ": 4213, "robot": 4214, "Cặp": 4215, "1992": 4216, "tranh_luận": 4217, "thượng_đỉnh": 4218, "se": 4219, "ter": 4220, "tựa": 4221, "kép": 4222, "Nam_Phi": 4223, "lạc_quan": 4224, "57": 4225, "trợ_giúp": 4226, "chân_thành": 4227, "nhân_tạo": 4228, "khoan": 4229, "Thanh_Niên": 4230, "tàu_chiến": 4231, "Vĩnh_Phúc": 4232, "PC": 4233, "men": 4234, "facebook": 4235, "dụng_cụ": 4236, "thương_vụ": 4237, "chôn": 4238, "bước_đi": 4239, "Đống_Đa": 4240, "chê": 4241, "Kiên": 4242, "1993": 4243, "giải_ngân": 4244, "cúng": 4245, "Bắc_Bộ": 4246, "nghi_vấn": 4247, "mặn": 4248, "Phú_Quốc": 4249, "tứ_kết": 4250, "de@@": 4251, "er_@@": 4252, "đắp": 4253, "chậu": 4254, "xưởng": 4255, "NSƯT": 4256, "mồi": 4257, "ton": 4258, "cao_đẳng": 4259, "Kỹ_thuật": 4260, "No@@": 4261, "đồ_chơi": 4262, "cảm": 4263, "truyện": 4264, "hạ_cánh": 4265, "tranh_cử": 4266, "Lê": 4267, "85": 4268, "Hồng_Kông": 4269, "tiện_ích": 4270, "đình_đám": 4271, "Mi@@": 4272, "phân_công": 4273, "vội": 4274, "đặt_hàng": 4275, "Thị_trường": 4276, "68": 4277, "1994": 4278, "ay@@": 4279, "bùng_nổ": 4280, "gay_gắt": 4281, "trí_tuệ": 4282, "bó": 4283, "1996": 4284, "đảm_nhận": 4285, "Vợ": 4286, "khen_ngợi": 4287, "Hà_Nam": 4288, "200.000": 4289, "7%": 4290, "đồng_loạt": 4291, "bình_tĩnh": 4292, "lân_cận": 4293, "hiển_thị": 4294, "ồn_ào": 4295, "nhập_cư": 4296, "Chẳng_hạn": 4297, "Dịch_vụ": 4298, "hào_hứng": 4299, "tự_nguyện": 4300, "đích": 4301, "xúc_tiến": 4302, "Hoàng_Sa": 4303, "ngày_một": 4304, "chuyển_biến": 4305, "tiền_bạc": 4306, "6/@@": 4307, "Quyền": 4308, "báo_động": 4309, "vóc_dáng": 4310, "thái": 4311, "lương_thực": 4312, "thầy_cô": 4313, "nắm_bắt": 4314, "El@@": 4315, "Ngọc_Trinh": 4316, "Tây_Bắc": 4317, "MTTQ": 4318, "đặc_sắc": 4319, "Bảo_@@": 4320, "500.000": 4321, "Tiền": 4322, "no@@": 4323, "Par@@": 4324, "HTX": 4325, "SLNA": 4326, "66": 4327, "sở_thích": 4328, "em_gái": 4329, "D.": 4330, "đê": 4331, "FC": 4332, "mong_đợi": 4333, "Mục_tiêu": 4334, "un@@": 4335, "bề_mặt": 4336, "Tình_trạng": 4337, "3D": 4338, "ing": 4339, "thu_mua": 4340, "Buổi": 4341, "bút": 4342, "luồng": 4343, "9.@@": 4344, "ngưỡng_mộ": 4345, "Bu@@": 4346, "bất_ổn": 4347, "bắt_cóc": 4348, "bệnh_tật": 4349, "cấp_uỷ": 4350, "mã_lực": 4351, "tị_nạn": 4352, "tia": 4353, "Ngân": 4354, "Hồ_Ngọc_Hà": 4355, "ella": 4356, "nước_biển": 4357, "Palestine": 4358, "mái_tóc": 4359, "nhậu": 4360, "4%": 4361, "tưởng_tượng": 4362, "au@@": 4363, "Viên": 4364, "gian": 4365, "um@@": 4366, "ed": 4367, "giáo": 4368, "idae": 4369, "bài_tập": 4370, "88": 4371, "Duy": 4372, "3/@@": 4373, "bước_đầu": 4374, "tiền_tệ": 4375, "Chu_@@": 4376, "hết_mình": 4377, "hàng_hải": 4378, "Vương": 4379, "a-@@": 4380, "đất_liền": 4381, "Qatar": 4382, "Trường_Giang": 4383, "Toán": 4384, "gian_lận": 4385, "phụ_kiện": 4386, "lặn": 4387, "6%": 4388, "cảnh_quan": 4389, "Giấy": 4390, "Cảnh": 4391, "luộc": 4392, "gia_hạn": 4393, "Sơn_@@": 4394, "liệt_sĩ": 4395, "Be@@": 4396, "no": 4397, "Bảng": 4398, "cảm_biến": 4399, "mồ_hôi": 4400, "ata": 4401, "av@@": 4402, "để_ý": 4403, "ngô": 4404, "Nhất": 4405, "Har@@": 4406, "me": 4407, "ngoại_ngữ": 4408, ".com": 4409, "cốc": 4410, "bỏng": 4411, "nhà_thờ": 4412, "Vẫn": 4413, "trợ_cấp": 4414, "tuyết": 4415, "Hữu_@@": 4416, "phân_loại": 4417, "1991": 4418, "Giữa": 4419, "Đại_biểu": 4420, "ya": 4421, "nghiệp": 4422, "im": 4423, "99": 4424, "từ_chức": 4425, "sinh_thái": 4426, "59": 4427, "Huyền": 4428, "Lợi": 4429, "cáp": 4430, "5.@@": 4431, "4/@@": 4432, "kê_khai": 4433, "thường_niên": 4434, "tư_thế": 4435, "quyết": 4436, "60%": 4437, "Tuyến": 4438, "địa": 4439, "Châu_@@": 4440, "đồng_thuận": 4441, "Kiev": 4442, "địch": 4443, "po@@": 4444, "bar": 4445, "lành": 4446, "mô": 4447, "Do@@": 4448, "Siêu": 4449, "i-@@": 4450, "táo": 4451, "triệu_tập": 4452, "di": 4453, "Sản_phẩm": 4454, "bể": 4455, "hoàn": 4456, "qua_lại": 4457, "tỷ_giá": 4458, "ng-@@": 4459, "tự_tử": 4460, "tò_mò": 4461, "giới_tính": 4462, "đạp": 4463, "GB": 4464, "Grab": 4465, "chui": 4466, "nghĩa_là": 4467, "thủng": 4468, "giọt": 4469, "chào_đón": 4470, "vang": 4471, "8%": 4472, "Tên": 4473, "900": 4474, "Phượng": 4475, "iOS": 4476, "bến_xe": 4477, "buôn_lậu": 4478, "khép": 4479, "đẹp_mắt": 4480, "dương": 4481, "1-@@": 4482, "chịu_đựng": 4483, "aceae": 4484, "Đình_@@": 4485, "thấm": 4486, "vật_thể": 4487, "Chiến": 4488, "Barack_Obama": 4489, "ngành_nghề": 4490, "CNN": 4491, "Man@@": 4492, "Chồng": 4493, "LG": 4494, "1.500": 4495, "điều_hoà": 4496, "chuông": 4497, "Sự_việc": 4498, "Liên_Hợp_Quốc": 4499, "giếng": 4500, "yêu_mến": 4501, "bỗng": 4502, "Nguyễn_Ngọc_@@": 4503, "kim_ngạch": 4504, "hoạ_sĩ": 4505, "cây_trồng": 4506, "Đối_tượng": 4507, "Seoul": 4508, "cho_dù": 4509, "tự_chủ": 4510, "vốn_điều_lệ": 4511, "eb@@": 4512, "lồng": 4513, "dải": 4514, "KH": 4515, "dầu_khí": 4516, "Ăn": 4517, "Toàn_bộ": 4518, "dạy_học": 4519, "tiềm_ẩn": 4520, "hở": 4521, "Công_Vinh": 4522, "15/@@": 4523, "tập_hợp": 4524, "th": 4525, "gừng": 4526, "hoang_mang": 4527, "Tết_Nguyên_đán": 4528, "bình_đẳng": 4529, "Biên_phòng": 4530, "sườn": 4531, "thưa": 4532, "hiệu_ứng": 4533, "12/@@": 4534, "Đào_@@": 4535, "N.@@": 4536, "Thọ": 4537, "Không_những": 4538, "Công_viên": 4539, "NLĐ": 4540, "phân_bón": 4541, "suy": 4542, "nhà_thiết_kế": 4543, "Tự": 4544, "1980": 4545, "khả_thi": 4546, "ví": 4547, "P.@@": 4548, "Trí": 4549, "Điện_lực": 4550, "lưu_giữ": 4551, "cạn": 4552, "Gu@@": 4553, "Phú_@@": 4554, "Daily_Mail": 4555, "Sóc_Trăng": 4556, "hài_hoà": 4557, "những_ai": 4558, "Sony": 4559, "nuôi_dưỡng": 4560, "ác": 4561, "tự_xưng": 4562, "ur@@": 4563, "71": 4564, "An_toàn": 4565, "trợ_lý": 4566, "hoàng": 4567, "đô": 4568, "nảy_sinh": 4569, "Ngành": 4570, "mới_mẻ": 4571, "Yên": 4572, "Công_thương": 4573, "hoãn": 4574, "thương_tích": 4575, "tuyển_thủ": 4576, "Bệnh": 4577, "phục": 4578, "Mỹ_@@": 4579, "vinh_dự": 4580, "ập": 4581, "gác": 4582, "thư_giãn": 4583, "Chiến_tranh": 4584, "vật_dụng": 4585, "Vị": 4586, "lên_đường": 4587, "buôn": 4588, "Máy_bay": 4589, "BMW": 4590, "Vòng": 4591, "ẩn": 4592, "PSG": 4593, "B.": 4594, "cài_đặt": 4595, "khoang": 4596, "mía": 4597, "’": 4598, "dân_tộc_thiểu_số": 4599, "hoành_tráng": 4600, "Tu@@": 4601, "1975": 4602, "Si@@": 4603, "mi@@": 4604, "độ_phân_giải": 4605, "Mỹ_Đình": 4606, "thất_nghiệp": 4607, "Bị_cáo": 4608, "rải_rác": 4609, "đồng_bằng": 4610, "khai_trương": 4611, "dỡ": 4612, "quét": 4613, "trọn_vẹn": 4614, "Sử_dụng": 4615, "van": 4616, "BBC": 4617, "Chuyên_gia": 4618, "chăm_lo": 4619, "6.@@": 4620, "Kon_Tum": 4621, "đối_xử": 4622, "thể": 4623, "PTNT": 4624, "ka": 4625, "Bạc_Liêu": 4626, "lên_án": 4627, "_t@@": 4628, "nứt": 4629, "ngắn_hạn": 4630, "bắt_gặp": 4631, "độc_quyền": 4632, "Làng": 4633, "ấm_áp": 4634, "cồn": 4635, "vứt": 4636, "nhà_cung_cấp": 4637, "8.@@": 4638, "Liệu": 4639, "MTV": 4640, "hô_hấp": 4641, "đoàn_viên": 4642, "Hoạt_động": 4643, "Phút": 4644, "Thuế": 4645, "03": 4646, "Tình": 4647, "Yến": 4648, "4,@@": 4649, "mì": 4650, "đổ_bộ": 4651, "7/@@": 4652, "tiểu_thuyết": 4653, "chứng_cứ": 4654, "Bến_Tre": 4655, "CA": 4656, "Đoạn": 4657, "Từng": 4658, "FDI": 4659, "ig@@": 4660, "Mấy": 4661, "Vĩnh_Long": 4662, "bất_hợp_pháp": 4663, "kẹt": 4664, "Tổng_Công_ty": 4665, "82": 4666, "Online": 4667, "Kết_thúc": 4668, "rồng": 4669, "Phố": 4670, "tồi_tệ": 4671, "bài_toán": 4672, "Hiện_trường": 4673, "triển_vọng": 4674, "ec@@": 4675, "điều_động": 4676, "La_Liga": 4677, "công_sức": 4678, "Biết": 4679, "p_@@": 4680, "Phạm_Thị_@@": 4681, "áp_đặt": 4682, "chữ_ký": 4683, "09@@": 4684, "TQ": 4685, "tim_mạch": 4686, "92": 4687, "scandal": 4688, "8/@@": 4689, "nhặt": 4690, "hoàn_chỉnh": 4691, "hu@@": 4692, "Libya": 4693, "Điện": 4694, "lốc": 4695, "Sáu": 4696, "dại": 4697, "toán": 4698, "ngưng": 4699, "Ninh": 4700, "hoá_học": 4701, "61": 4702, "gối": 4703, "Go@@": 4704, "yếu_kém": 4705, "Colombia": 4706, "76": 4707, "Cảng": 4708, "6.000": 4709, "NH": 4710, "nhà_thơ": 4711, "Món": 4712, "15%": 4713, "_P@@": 4714, "đấu_trường": 4715, "cổ_phần_hoá": 4716, "đun": 4717, "út": 4718, "lật": 4719, "rắc_rối": 4720, "nông": 4721, "oan": 4722, "mũ": 4723, "xào": 4724, "giàn": 4725, "tương_tác": 4726, "Châu_Á": 4727, "Điện_Biên": 4728, "nhường": 4729, "lực_lượng_vũ_trang": 4730, "cố_vấn": 4731, "chiên": 4732, "Hoàng_Mai": 4733, "Linh_@@": 4734, "az@@": 4735, "mùng": 4736, "xơ": 4737, "Rooney": 4738, "thủ_tướng": 4739, "New_Zealand": 4740, "bản_chất": 4741, "and@@": 4742, "1,2": 4743, "tám": 4744, "Lượng": 4745, "giản_dị": 4746, "tiếp_thu": 4747, "Vladimir_Putin": 4748, "ưa_chuộng": 4749, "Dù_vậy": 4750, "Đức_@@": 4751, "ổn": 4752, "05": 4753, "36,@@": 4754, "2-1": 4755, "bản_án": 4756, "công_vụ": 4757, "7.@@": 4758, "xông": 4759, "me@@": 4760, "bảo_tàng": 4761, "khắc": 4762, "95": 4763, "t-@@": 4764, "cán": 4765, "thuỷ": 4766, "sạch_sẽ": 4767, "kiểm_toán": 4768, "Khoản": 4769, "sản": 4770, "kiềm_chế": 4771, "Tiếp_tục": 4772, "lên_ngôi": 4773, "nạp": 4774, "thoả_mãn": 4775, "nhân_đạo": 4776, "phái": 4777, "Đồng_chí": 4778, "thể_loại": 4779, "rò_rỉ": 4780, "xâm_hại": 4781, "73": 4782, "CTCP": 4783, "lan_toả": 4784, "gợi_ý": 4785, "Con@@": 4786, "ae": 4787, "nghệ_nhân": 4788, "3G": 4789, "ngăn_cản": 4790, "dung_lượng": 4791, "thang": 4792, "khoác_áo": 4793, "thủ_công": 4794, "sơ_sinh": 4795, "trầm_trọng": 4796, "mưa_lũ": 4797, "thuận_tiện": 4798, "86": 4799, "69": 4800, "Thanh_Xuân": 4801, "Hoàng_gia": 4802, "lau": 4803, "thể_lực": 4804, "Vùng": 4805, "khám_chữa": 4806, "Huyện": 4807, "phim_truyền_hình": 4808, "đột_biến": 4809, "thoáng": 4810, "điều_khoản": 4811, "Bảy": 4812, "hưởng_ứng": 4813, "khám_nghiệm": 4814, "chất_độc": 4815, "+@@": 4816, "gắn_kết": 4817, "As@@": 4818, "vô": 4819, "6,@@": 4820, "diễn_tập": 4821, "tư_liệu": 4822, "nhện": 4823, "ne": 4824, "kiến_tạo": 4825, "Ti@@": 4826, "é@@": 4827, "khe": 4828, "sắc_đẹp": 4829, "lắp_ráp": 4830, "tối_cao": 4831, "Công_trình": 4832, "ra_lệnh": 4833, "Thời": 4834, "11/@@": 4835, "=": 4836, "sĩ_quan": 4837, "hẹp": 4838, "Hương_@@": 4839, "sai_sót": 4840, "thánh": 4841, "chủ_nghĩa": 4842, "mật_ong": 4843, "_D@@": 4844, "Ngược_lại": 4845, "cương_vị": 4846, "công_thức": 4847, "Thông": 4848, "chữa_trị": 4849, "hố": 4850, "Cor@@": 4851, "mệnh_danh": 4852, "chủ_quan": 4853, "chất_béo": 4854, "góp_ý": 4855, "hiệu_trưởng": 4856, "thủ_lĩnh": 4857, "tâm_trạng": 4858, "thu_gom": 4859, "rùa": 4860, "hành_nghề": 4861, "tự_ý": 4862, "Báo_chí": 4863, "lâm": 4864, "tận_hưởng": 4865, "Nguyễn_Đức_@@": 4866, "25%": 4867, "KCN": 4868, "phán_quyết": 4869, "Tiểu_học": 4870, "trình_báo": 4871, "chủ_chốt": 4872, "kháng_chiến": 4873, "77": 4874, "anh_trai": 4875, "hi_vọng": 4876, "ôn": 4877, "tiếng_nói": 4878, "cổ_điển": 4879, "định_kỳ": 4880, "ăn_mặc": 4881, "bẫy": 4882, "hình_phạt": 4883, "9%": 4884, "tus": 4885, "bùn": 4886, "láng_giềng": 4887, "rộng_lớn": 4888, "mười": 4889, "Com@@": 4890, "chứng_chỉ": 4891, "gặp_mặt": 4892, "ban_đêm": 4893, "trùng": 4894, "âm_mưu": 4895, "M.@@": 4896, "danh_dự": 4897, "2030": 4898, "bi": 4899, "Mon@@": 4900, "võ": 4901, "con_cháu": 4902, "ấn": 4903, "set": 4904, "Mạnh": 4905, "nhân_chứng": 4906, "c_@@": 4907, "gh@@": 4908, "nước_mắm": 4909, "dự_toán": 4910, "thắp": 4911, "per@@": 4912, "mỹ_nhân": 4913, "Nguyễn_Hữu_@@": 4914, "khái_niệm": 4915, "ley": 4916, "19@@": 4917, "còi": 4918, "phê_bình": 4919, "đầu_ra": 4920, "Cựu": 4921, "Mới": 4922, "4.0": 4923, "dễ_thương": 4924, "tâm_hồn": 4925, "trụ_cột": 4926, "Thiết_kế": 4927, "uỷ_quyền": 4928, "_T@@": 4929, "ers": 4930, "kê": 4931, "protein": 4932, "ic": 4933, "Long_Biên": 4934, "NSND": 4935, "Ba_Đình": 4936, "2/@@": 4937, "vợ_con": 4938, "phân_bố": 4939, "màn_ảnh": 4940, "kỹ_lưỡng": 4941, "ou@@": 4942, "môi_giới": 4943, "Bình_Phước": 4944, "cận": 4945, "vũ_trang": 4946, "Pi@@": 4947, "30/@@": 4948, "nhân_tố": 4949, "Ru@@": 4950, "cháo": 4951, "tiểu_bang": 4952, "lo_sợ": 4953, "thửa": 4954, "ay": 4955, "rõ_rệt": 4956, "Phi": 4957, "Gió": 4958, "Hollywood": 4959, "chén": 4960, "Al-@@": 4961, "anh_chị": 4962, "1000": 4963, "Cầu_thủ": 4964, "lão": 4965, "bùng_phát": 4966, "op@@": 4967, "chắn": 4968, "Đan_Mạch": 4969, "lời_nói": 4970, "ANTĐ": 4971, "máy_ảnh": 4972, "bình_yên": 4973, "lấn_chiếm": 4974, "il": 4975, "CT": 4976, "Duy_@@": 4977, "Chẳng": 4978, "tốn_kém": 4979, "04": 4980, "79": 4981, "thìa": 4982, "Máy": 4983, "luyện_tập": 4984, "ang@@": 4985, "sứ": 4986, "thiếu_nhi": 4987, "Ki@@": 4988, "Mu@@": 4989, "ngoài_trời": 4990, "hé": 4991, "Hoàn_vũ": 4992, "gốm": 4993, "Te@@": 4994, "ướp": 4995, "đùa": 4996, "lưỡi": 4997, "Khanh": 4998, "Phát": 4999, "Tây_Ninh": 5000, "má": 5001, "SV": 5002, "25@@": 5003, "Hai_Bà_Trưng": 5004, "Thầy": 5005, "Lee": 5006, "74": 5007, "EVN": 5008, "tên_lửa_đạn_đạo": 5009, "Saudi_Arabia": 5010, "kiểm_định": 5011, "Tam_@@": 5012, "Thiên": 5013, "báo_giới": 5014, "chán": 5015, "viện_trợ": 5016, "tầng_lớp": 5017, "mâm": 5018, "Ad@@": 5019, "1988": 5020, "nhãn_hiệu": 5021, "Đàm_Vĩnh_Hưng": 5022, "Công_đoàn": 5023, "Pa@@": 5024, "nhiễm_trùng": 5025, "riêng_tư": 5026, "Thống_kê": 5027, "ate": 5028, "sơ_tán": 5029, "tâm_huyết": 5030, "vào_vai": 5031, "Giống": 5032, "chăm_chỉ": 5033, "thần_tượng": 5034, "chủ_lực": 5035, "đúng_đắn": 5036, "đến_nơi": 5037, "tưới": 5038, "bí_quyết": 5039, "Tiên": 5040, "lý_thuyết": 5041, "2-0": 5042, "Thủ_Đức": 5043, "V.": 5044, "1989": 5045, "kim_cương": 5046, "Thay_vì": 5047, "mệt": 5048, "Old_Trafford": 5049, "5,@@": 5050, "bầu_trời": 5051, "ưu_thế": 5052, "9/@@": 5053, "RAM": 5054, "điệu": 5055, "Chàng": 5056, "tắc": 5057, "axit": 5058, "hoang_dã": 5059, "đội_trưởng": 5060, "lượt_đi": 5061, "pi@@": 5062, "hiện_thực": 5063, "Crimea": 5064, "khoáng_sản": 5065, "tư_pháp": 5066, "Thiếu_tướng": 5067, "Pro@@": 5068, "cải": 5069, "golf": 5070, "coi_trọng": 5071, "Tạp_chí": 5072, "thảo": 5073, "Đông_Nam": 5074, "con_em": 5075, "Dòng": 5076, "Thiện": 5077, "kiểm_điểm": 5078, "đa_khoa": 5079, "Khoa_@@": 5080, "Thí_sinh": 5081, "em_trai": 5082, "xám": 5083, "3,5": 5084, "con@@": 5085, "ca_hát": 5086, "đoàn_thể": 5087, "Cận_Bình": 5088, "trực": 5089, "Trinh": 5090, "ts": 5091, "Quy_định": 5092, "hiện_đại_hoá": 5093, "84": 5094, "khủng_khiếp": 5095, "sụt_giảm": 5096, "ani": 5097, "Hoài_Linh": 5098, "83": 5099, "Không_thể": 5100, "tín_nhiệm": 5101, "đại_hội": 5102, "Vợ_chồng": 5103, "giải_trình": 5104, "Ca_sĩ": 5105, "quả_tang": 5106, "Nghệ_thuật": 5107, "nhà_nghỉ": 5108, "cu@@": 5109, "Bộ_luật": 5110, "nhôm": 5111, "ngoại_tình": 5112, "Bố": 5113, "chỉnh_sửa": 5114, "chăm": 5115, "nghệ": 5116, "động_tác": 5117, "Lao_Động": 5118, "ròng": 5119, "Mc@@": 5120, "Sơn_Tùng": 5121, "ko@@": 5122, "dự_bị": 5123, "thị_trường_chứng_khoán": 5124, "Rõ_ràng": 5125, "sư_phạm": 5126, "Lấy": 5127, "Ri@@": 5128, "Instagram": 5129, "tử": 5130, "hoa_hồng": 5131, "ah@@": 5132, "cố_ý": 5133, "địa_hình": 5134, "lai": 5135, "Thuý": 5136, "Tỷ_lệ": 5137, "kích_hoạt": 5138, "vú": 5139, "quy_tắc": 5140, "dây_chuyền": 5141, "TH@@": 5142, "cưng": 5143, "Thượng": 5144, "giới_chức": 5145, "YouTube": 5146, "ngọc": 5147, "sa_thải": 5148, "Chứng_khoán": 5149, "Kar@@": 5150, "_K@@": 5151, "vừa_rồi": 5152, "mặt_nạ": 5153, "công_chúa": 5154, "XII": 5155, "vĩ_đại": 5156, "cư_trú": 5157, "xay": 5158, "mơ_ước": 5159, "phát_ngôn": 5160, "hữu_ích": 5161, "Pe@@": 5162, "vắng_mặt": 5163, "làng_nghề": 5164, "Công_việc": 5165, "đánh_bạc": 5166, "nhiệt_đới": 5167, "cổ_truyền": 5168, "kế_toán": 5169, "QH": 5170, "Cấp": 5171, "ru@@": 5172, "sống_sót": 5173, "Chiến_lược": 5174, "kháng_sinh": 5175, "1.0@@": 5176, "mạo_hiểm": 5177, "trước_hết": 5178, "ĐBSCL": 5179, "nắp": 5180, "lún": 5181, "300.000": 5182, "ngày_mai": 5183, "PGS": 5184, "VND": 5185, "Nguyễn_.": 5186, "cứu_trợ": 5187, "78": 5188, "Hợp_tác": 5189, "làn_sóng": 5190, "vực": 5191, "cỗ": 5192, "chăn": 5193, "Đà": 5194, "Khang": 5195, "nhà_ga": 5196, "Phúc_@@": 5197, "AC": 5198, "muỗi": 5199, "bận": 5200, "địa_phận": 5201, "thềm": 5202, "9X": 5203, "gian_hàng": 5204, "hoạ_tiết": 5205, "hàng_rào": 5206, "duyệt": 5207, "danh_tính": 5208, "Đang": 5209, "vừa_phải": 5210, "Tân_Sơn_Nhất": 5211, "hồn": 5212, "w": 5213, "sư": 5214, "gas": 5215, "Nhà_báo": 5216, "Cháu": 5217, "City": 5218, "gia_cầm": 5219, "mờ": 5220, "doạ": 5221, "hoa_quả": 5222, "rước": 5223, "thủ_thành": 5224, "đèo": 5225, "XH": 5226, "giao_hữu": 5227, "triều": 5228, "xếp_hàng": 5229, "5-@@": 5230, "vũ_khí_hạt_nhân": 5231, "FA": 5232, "Ninh_Thuận": 5233, "PVN": 5234, "Giọng": 5235, "vạch": 5236, "vi": 5237, "làm_quen": 5238, "kiên_trì": 5239, "sexy": 5240, "ve": 5241, "ATGT": 5242, "PGS.TS": 5243, "Căn_cứ": 5244, "n-@@": 5245, "lõi": 5246, "nhân_văn": 5247, "cầm_quân": 5248, "tủ_lạnh": 5249, "Mời": 5250, "gầm": 5251, "ra_quân": 5252, "Hậu_Giang": 5253, "al_@@": 5254, "danh": 5255, "khuôn_viên": 5256, "phê_chuẩn": 5257, "Cụ": 5258, "nhân_dịp": 5259, ".vn": 5260, "xâm_phạm": 5261, "mày": 5262, "ard": 5263, "vinh_danh": 5264, "car@@": 5265, "lốp": 5266, "quốc_tịch": 5267, "kháng": 5268, "thảm": 5269, "Trẻ": 5270, "Học": 5271, "liên_bang": 5272, "gen": 5273, "người_tình": 5274, "Bayern": 5275, "mar@@": 5276, "trung_thành": 5277, "Dự_thảo": 5278, "Khánh_@@": 5279, "quan_ngại": 5280, "tô": 5281, "lăn": 5282, "tức_giận": 5283, "đơn_thuần": 5284, "thành_quả": 5285, "Trang_@@": 5286, "Mor@@": 5287, "Bởi_vậy": 5288, "thăm_hỏi": 5289, "tâm_thần": 5290, "Lai_Châu": 5291, "bản_sắc": 5292, "siết": 5293, "tích": 5294, "du_học": 5295, "vặt": 5296, "cài": 5297, "thị": 5298, "Jo@@": 5299, "điều_tiết": 5300, "mu@@": 5301, "Lam": 5302, "cò": 5303, "08": 5304, "BĐBP": 5305, "sinh_sản": 5306, "1982": 5307, "IV": 5308, "Phước": 5309, "cong": 5310, "ak": 5311, "tín_đồ": 5312, "dũng_cảm": 5313, "phúc_thẩm": 5314, "30@@": 5315, "góc_độ": 5316, "chiều_tối": 5317, "tội_danh": 5318, "cà_chua": 5319, "thiện": 5320, "lon": 5321, "chóng_mặt": 5322, "Nhung": 5323, "khắc_nghiệt": 5324, "87": 5325, "tiểu_đường": 5326, "11.@@": 5327, "cao_tuổi": 5328, "be@@": 5329, "tạ": 5330, "Cửu_Long": 5331, "dưa": 5332, "ruồi": 5333, "10.@@": 5334, "TH": 5335, "Ban_Chấp_hành": 5336, "Bác_Hồ": 5337, "Ke@@": 5338, "cô_đơn": 5339, "Nhật_@@": 5340, "nhà_vệ_sinh": 5341, "Tiểu_@@": 5342, "HD": 5343, "chua": 5344, "1-1": 5345, "Miền": 5346, "gu@@": 5347, "chiến_đấu_cơ": 5348, "ván": 5349, "liên_ngành": 5350, "der": 5351, "in_@@": 5352, "ri": 5353, "ống_kính": 5354, "pháo_hoa": 5355, "Thông_qua": 5356, "ơn": 5357, "TT@@": 5358, "cất_cánh": 5359, "1986": 5360, "Miura": 5361, "tử_cung": 5362, "Nạn_nhân": 5363, "Sal@@": 5364, "24@@": 5365, "Tiền_Phong": 5366, "Hồ_@@": 5367, "sổ_đỏ": 5368, "En@@": 5369, "bộ_đội": 5370, "màng": 5371, "one": 5372, "bơ": 5373, "Danh_sách": 5374, "tước": 5375, "Chile": 5376, "luyện": 5377, "giấc_ngủ": 5378, "phân_bổ": 5379, "đa_phần": 5380, "23@@": 5381, "Manchester_United": 5382, "rào_cản": 5383, "lan_truyền": 5384, "40.000": 5385, "cũng_nên": 5386, "bộ_môn": 5387, "dị_ứng": 5388, "quầy": 5389, "Tăng_cường": 5390, "Dầu_khí": 5391, "Hạ": 5392, "Chuyến": 5393, "Mal@@": 5394, "Per@@": 5395, "trẻ_con": 5396, "siêu_mẫu": 5397, "Thừa_Thiên": 5398, "loại_trừ": 5399, "đường_ống": 5400, "Biển_Đông": 5401, "W": 5402, "thông_tấn": 5403, "khung_thành": 5404, "Hiến_pháp": 5405, "thủ_đoạn": 5406, "Jong-un": 5407, "bất": 5408, "đảm_nhiệm": 5409, "ngày_đêm": 5410, "chốn": 5411, "Biên_Hoà": 5412, "thèm": 5413, "hội_viên": 5414, "giảng": 5415, "vách": 5416, "7.000": 5417, "ki": 5418, "20/@@": 5419, "văn_nghệ": 5420, "Nhằm": 5421, "vĩ_mô": 5422, "gìn_giữ": 5423, "tán": 5424, "mặt_nước": 5425, "kề": 5426, "Hiển": 5427, "nghệ_sỹ": 5428, "ghi_hình": 5429, "S.": 5430, "K.": 5431, "Khách": 5432, "bất_đồng": 5433, "giúp_việc": 5434, "nhà_phân_tích": 5435, "Đánh_giá": 5436, "tổn_thất": 5437, "phối": 5438, "thể_chế": 5439, "san": 5440, "Nằm": 5441, "81": 5442, "xã_hội_hoá": 5443, "Cúc": 5444, "Sư_phạm": 5445, "kẻ_thù": 5446, "st@@": 5447, "Ab@@": 5448, "dần_dần": 5449, "chuyên_đề": 5450, "mịn": 5451, "ứng": 5452, "ý_chí": 5453, "Ngoại_hạng": 5454, "Thế_@@": 5455, "sưng": 5456, "định_giá": 5457, "350": 5458, "cơ_động": 5459, "ồn": 5460, "vân": 5461, "xinh": 5462, "Hán": 5463, "bế_tắc": 5464, "TW": 5465, "truy": 5466, "khiêm_tốn": 5467, "tích_luỹ": 5468, "tháo": 5469, "Chùa": 5470, "cãi": 5471, "khởi_kiện": 5472, "cấp_độ": 5473, "go@@": 5474, "hứng": 5475, "Huệ": 5476, "UNESCO": 5477, "rẽ": 5478, "họng": 5479, "A.@@": 5480, "bất_lợi": 5481, "phong_thuỷ": 5482, "Đào": 5483, "15.000": 5484, "hái": 5485, "Hoá": 5486, "8.000": 5487, "bước_tiến": 5488, "cho_nên": 5489, "xổ_số": 5490, "cuộc_gọi": 5491, "Sputnik": 5492, "Thông_thường": 5493, "Phật_giáo": 5494, "1/3": 5495, "lỏng": 5496, "tháo_dỡ": 5497, "Ku@@": 5498, "Amazon": 5499, "nhận_lời": 5500, "pro@@": 5501, "ber@@": 5502, "nấu_ăn": 5503, "sụp_đổ": 5504, "cao_tầng": 5505, "đầu_bảng": 5506, "Nam_Bộ": 5507, "cầm_quyền": 5508, "thầy_giáo": 5509, "người_phát_ngôn": 5510, "89": 5511, "3-@@": 5512, "buông": 5513, "nén": 5514, "Tin_tức": 5515, "ko": 5516, "kiểu_dáng": 5517, "thi_tuyển": 5518, "tang_vật": 5519, "ngữ": 5520, "trong_sáng": 5521, "Tuần": 5522, "Kurd": 5523, "Tuyên_bố": 5524, "DL": 5525, "ce": 5526, "xoáy": 5527, "ốm": 5528, "nhận_diện": 5529, "cập": 5530, "A-@@": 5531, "lưu_niệm": 5532, "bún": 5533, "trầm_cảm": 5534, "Oscar": 5535, "USS": 5536, "biên": 5537, "tạo_hình": 5538, "tivi": 5539, "VN@@": 5540, "lớn_tuổi": 5541, "Hoà_@@": 5542, "1987": 5543, "sân_vận_động": 5544, "San@@": 5545, "Vân_@@": 5546, "HTC": 5547, "Nữ_hoàng": 5548, "gia_súc": 5549, "Khác": 5550, "nho": 5551, "suy_thoái": 5552, "Nghệ": 5553, "vớt": 5554, "khía_cạnh": 5555, "tuyển_chọn": 5556, "00@@": 5557, "sỏi": 5558, "nước_ngọt": 5559, "Xuân_Trường": 5560, "bảo_dưỡng": 5561, "Yên_@@": 5562, "ngỡ_ngàng": 5563, "đồng_tính": 5564, "_V@@": 5565, "lề": 5566, "1970": 5567, "web": 5568, "Bayern_Munich": 5569, "Intel": 5570, "110": 5571, "Đô_thị": 5572, "xinh_xắn": 5573, "Pháp_luật": 5574, "tiên_phong": 5575, "alis": 5576, "Đền": 5577, "Giáng_sinh": 5578, "muỗng": 5579, "biến_chứng": 5580, "xoá_bỏ": 5581, "tất_nhiên": 5582, "Thịt": 5583, "linh_kiện": 5584, "Thạch_@@": 5585, "Thay": 5586, "nhà_chức_trách": 5587, "91": 5588, "Xanh": 5589, "Sinh_viên": 5590, "Thi": 5591, "cuốn_hút": 5592, "lưu_lượng": 5593, "cấu_hình": 5594, "bắt_mắt": 5595, "chảo": 5596, "sơ_bộ": 5597, "táo_bạo": 5598, "tưởng_niệm": 5599, "Vài": 5600, "đau_khổ": 5601, "Tiến_@@": 5602, "kiến": 5603, "rong": 5604, "2-@@": 5605, "bê_bối": 5606, "Tuấn_@@": 5607, "sinh_vật": 5608, "soạn_thảo": 5609, "Kỳ_Duyên": 5610, "chấn_chỉnh": 5611, "Ni@@": 5612, "ini": 5613, "nồng_độ": 5614, "thuỷ_lợi": 5615, "hiệp_định": 5616, "Đơn_vị": 5617, "hàm": 5618, "công_cuộc": 5619, "thoái": 5620, "xoắn": 5621, "93": 5622, "lâu_nay": 5623, "mại_dâm": 5624, "on_@@": 5625, "hội_đàm": 5626, "hiện_vật": 5627, "thác": 5628, "Diễn_viên": 5629, "CAND": 5630, "Định": 5631, "V.League": 5632, "rạng_rỡ": 5633, "nhạt": 5634, "Nghệ_sĩ": 5635, "ĐBQH": 5636, "Phát_hiện": 5637, "đặt_chân": 5638, "phá_hoại": 5639, "tài_tử": 5640, "Bốn": 5641, "tho@@": 5642, "V.@@": 5643, "hoan_nghênh": 5644, "96": 5645, "mắc_kẹt": 5646, "thua_lỗ": 5647, "ena": 5648, "Hy@@": 5649, "dặm": 5650, "ngừng_bắn": 5651, "phong_toả": 5652, "e-@@": 5653, "cản": 5654, "chu_đáo": 5655, "Trần_Đại_Quang": 5656, "QL@@": 5657, "giòn": 5658, "mi": 5659, "lường": 5660, "Thống_Nhất": 5661, "ong_@@": 5662, "Hoặc": 5663, "công_đoàn": 5664, "bổ": 5665, "mà_lại": 5666, "Cao_đẳng": 5667, "Quảng": 5668, "phẩm_chất": 5669, "thông_số": 5670, "HN": 5671, "đương_nhiên": 5672, "ế": 5673, "dê": 5674, "chào_mừng": 5675, "bày_bán": 5676, "bìa": 5677, "Triệu_@@": 5678, "VPF": 5679, "lus": 5680, "tis": 5681, "Kinh_doanh": 5682, "ương": 5683, "trả_giá": 5684, "học_hành": 5685, "Ngôi_sao": 5686, "sếp": 5687, "bảo_hộ": 5688, "bộ_trưởng": 5689, "rụng": 5690, "thiết_yếu": 5691, "ca_ngợi": 5692, "Cao_Bằng": 5693, "bắt_nguồn": 5694, "nghĩa_trang": 5695, "tem": 5696, "tối_ưu": 5697, "cáo_trạng": 5698, "dịu_dàng": 5699, "huỷ_bỏ": 5700, "cổ_động_viên": 5701, "by": 5702, "C.@@": 5703, "suy_yếu": 5704, "đều_đặn": 5705, "kết_cấu": 5706, "lập_công": 5707, "12.@@": 5708, "AS": 5709, "laptop": 5710, "hiếm_hoi": 5711, "bài_bản": 5712, "ah": 5713, "nhẫn": 5714, "Anh_@@": 5715, "sương_mù": 5716, "sử": 5717, "Đôi": 5718, "bề": 5719, "Suốt": 5720, "nguyện": 5721, "1945": 5722, "địa_lý": 5723, "Phần_lớn": 5724, "ngày_xưa": 5725, "Nhân_dịp": 5726, "leo_thang": 5727, "tri@@": 5728, "phần_tử": 5729, "7,@@": 5730, "Cu@@": 5731, "Bi@@": 5732, "khối_u": 5733, "Thành_@@": 5734, "ea": 5735, "chú_rể": 5736, "khen_thưởng": 5737, "130": 5738, "Tiền_vệ": 5739, "1985": 5740, "hối_lộ": 5741, "túi_xách": 5742, "Thượng_Hải": 5743, "bày": 5744, "Yemen": 5745, "ĐB": 5746, "cho@@": 5747, "phì": 5748, "Ag@@": 5749, "gam": 5750, "06": 5751, "180": 5752, "tuyên_phạt": 5753, "TNO": 5754, "Quỹ_@@": 5755, "đè": 5756, "luôn_luôn": 5757, "minh_chứng": 5758, "hôi": 5759, "sâm": 5760, "tra": 5761, "B.@@": 5762, "ver@@": 5763, "ATM": 5764, "Jordan": 5765, "L.@@": 5766, "đếm": 5767, "Ba@@": 5768, "trở_ngại": 5769, "Thu_@@": 5770, "Thừa_Thiên_Huế": 5771, "hữu_cơ": 5772, "hiệu_suất": 5773, "khí_đốt": 5774, "sâu_rộng": 5775, "hạt_giống": 5776, "xu_thế": 5777, "Ukraina": 5778, "ad": 5779, "Group": 5780, "y_học": 5781, "xứ_sở": 5782, "thiếu_nữ": 5783, "giật_mình": 5784, "4G": 5785, "điên": 5786, "mầm": 5787, "truy_nã": 5788, "karaoke": 5789, "quần_chúng": 5790, "ung": 5791, "Đứng": 5792, "ngần_ngại": 5793, "LĐLĐ": 5794, "tuyên": 5795, "á@@": 5796, "chảy_máu": 5797, "Bangkok": 5798, "Vietnam_Airlines": 5799, "quyền_hạn": 5800, "dọn_dẹp": 5801, "biệt_danh": 5802, "riêng_biệt": 5803, "nhà_tài_trợ": 5804, "Bóng_đá": 5805, "dày_đặc": 5806, "Can@@": 5807, "trúng_tuyển": 5808, "Chiến_dịch": 5809, "rễ": 5810, "thư_viện": 5811, "Sự_kiện": 5812, "đặc_nhiệm": 5813, "Chúc": 5814, "aria": 5815, "Quảng_@@": 5816, "khí_thải": 5817, "đại_sứ": 5818, "hoà_giải": 5819, "giãn": 5820, "Anh_Tuấn": 5821, "thế_chấp": 5822, "sim": 5823, "Nguyễn_Đình_@@": 5824, "Hungary": 5825, "Cas@@": 5826, "ham": 5827, "Tiền_đạo": 5828, "ký_ức": 5829, "ly@@": 5830, "nhận_biết": 5831, "lưu_hành": 5832, "cưỡng_chế": 5833, "liệt": 5834, "Chỉ_thị": 5835, "chính_đáng": 5836, "lệch": 5837, "cảm_ứng": 5838, "Ánh": 5839, "thuỷ_thủ": 5840, "nguội": 5841, "khuya": 5842, "chỉnh": 5843, "mini": 5844, "Chi@@": 5845, "bảo_trì": 5846, "chửi": 5847, "xách": 5848, "Trà_Vinh": 5849, "tái_tạo": 5850, "Bitcoin": 5851, "tình_tiết": 5852, "ghét": 5853, "Nội_Bài": 5854, "tinh": 5855, "phản_cảm": 5856, "Ha@@": 5857, "Tướng": 5858, "98": 5859, "Bàn": 5860, "phở": 5861, "Thường": 5862, "thủ_phạm": 5863, "Boeing": 5864, "Aleppo": 5865, "tác_hại": 5866, "giận": 5867, "e_S@@": 5868, "gấu": 5869, "chuyển_hoá": 5870, "09": 5871, "phải_biết": 5872, "trang_sức": 5873, "quý_giá": 5874, "ti": 5875, "Đầu_tiên": 5876, "par@@": 5877, "quay_phim": 5878, "Sống": 5879, "chiến_sỹ": 5880, "thu_hẹp": 5881, "an_sinh": 5882, "tra@@": 5883, "khả_quan": 5884, "tiêm_kích": 5885, "Liên_hiệp": 5886, "chương": 5887, "com@@": 5888, "tro": 5889, "khánh_thành": 5890, "cánh_tay": 5891, "Chính_trị": 5892, "ca_nhạc": 5893, ".vn.": 5894, "thỉnh_thoảng": 5895, "Quân_khu": 5896, "hit": 5897, "vô_số": 5898, "chìa_khoá": 5899, "Giang_@@": 5900, "xa_lạ": 5901, "dầu_mỏ": 5902, "ica": 5903, "Trái_đất": 5904, "phá_sản": 5905, "da@@": 5906, "kênh_truyền_hình": 5907, "tăng_tốc": 5908, "kỳ_hạn": 5909, "Ac@@": 5910, "Di_sản": 5911, "nhiếp_ảnh_gia": 5912, "bú": 5913, "giao_diện": 5914, "Thống_đốc": 5915, "id": 5916, "Tuyên_Quang": 5917, "tràn_lan": 5918, "Quỳnh_@@": 5919, "Đạo_diễn": 5920, "Ly": 5921, "Tăng": 5922, "kéo_theo": 5923, "trí": 5924, "cảnh_giác": 5925, "lặp": 5926, "Yêu": 5927, "mặt_trận": 5928, "khuyết_điểm": 5929, "Quy_Nhơn": 5930, "dược": 5931, "bí": 5932, "Sau_này": 5933, "Na_Uy": 5934, "Thơ": 5935, "ing@@": 5936, "1-0": 5937, "%": 5938, "SHB": 5939, "Clinton": 5940, "trách": 5941, "tả": 5942, "mốt": 5943, "mô_tô": 5944, "Liên_@@": 5945, "Á": 5946, "Lịch": 5947, "Chỉ_số": 5948, "song_song": 5949, "Cộng_sản": 5950, "đùi": 5951, "tỉnh_táo": 5952, "Cẩm_@@": 5953, "Nghi": 5954, "La": 5955, "lượt_về": 5956, "ino": 5957, "Học_sinh": 5958, "tiện": 5959, "năm_tháng": 5960, "aw@@": 5961, "quý_hiếm": 5962, "du": 5963, "31/@@": 5964, "một_ít": 5965, "Cương": 5966, "bin": 5967, "phát_ngôn_viên": 5968, "Giai_đoạn": 5969, "đại_dương": 5970, "tuổi_trẻ": 5971, "Man_Utd": 5972, "LED": 5973, "đường_kính": 5974, "Cá": 5975, "nh": 5976, "hợp_nhất": 5977, "lục_địa": 5978, "BIDV": 5979, "xi_măng": 5980, "Tim": 5981, "chiêu_mộ": 5982, "tỉnh_thành": 5983, "tri_ân": 5984, "tàu_thuyền": 5985, "giây_phút": 5986, "que": 5987, "VKSND": 5988, "Tham_gia": 5989, "phòng_khám": 5990, "CH@@": 5991, "biên_phòng": 5992, "nhà_trọ": 5993, "Phiên_bản": 5994, "ưu_điểm": 5995, "bộc_lộ": 5996, "thao_tác": 5997, "ca_sỹ": 5998, "Nguyễn_Phú_Trọng": 5999, "Thuỷ_@@": 6000, "Nguyễn_Thanh_@@": 6001, "ăn_mừng": 6002, "đụng_độ": 6003, "lộc": 6004, "ly_khai": 6005, "liên_doanh": 6006, "hư": 6007, "tổn_hại": 6008, "ư": 6009, "ai@@": 6010, "Chính_sách": 6011, "Hạ_viện": 6012, "tẩy": 6013, "xe_ôm": 6014, "nghị_sĩ": 6015, "sôi_nổi": 6016, "Bình_Thạnh": 6017, "7-@@": 6018, "côn_trùng": 6019, "1A": 6020, "không_thể_nào": 6021, "Thân": 6022, "chuyển_động": 6023, "dồi_dào": 6024, "Hình_sự": 6025, "tiếc_nuối": 6026, "TPO": 6027, "Đen": 6028, "cường_quốc": 6029, "mạnh_dạn": 6030, "Kiều_@@": 6031, "đắng": 6032, "Tây_Hồ": 6033, "Đảo": 6034, "lầm": 6035, "bản_địa": 6036, "ni": 6037, "soi": 6038, "Cha": 6039, "pp@@": 6040, "Chương": 6041, "Sách": 6042, "RT": 6043, "un": 6044, "năm_tuổi": 6045, "trào_lưu": 6046, "Hành_động": 6047, "mù": 6048, "chào_bán": 6049, "mới_lạ": 6050, "Cộng_đồng": 6051, "Tân_Bình": 6052, "chiêm_ngưỡng": 6053, "Chân": 6054, "Her@@": 6055, "Cán_bộ": 6056, "vấp": 6057, "tập_thể_dục": 6058, "CS@@": 6059, "sướng": 6060, "Vietcombank": 6061, "Mas@@": 6062, "bikini": 6063, "8-@@": 6064, "Phạm_Hương": 6065, "He@@": 6066, "xuống_đường": 6067, "Bạch_@@": 6068, "quen_biết": 6069, "thất_thoát": 6070, "đề_phòng": 6071, "làm_giàu": 6072, "chọn_lựa": 6073, "nguy_kịch": 6074, "quốc_hội": 6075, "xấu_hổ": 6076, "ke": 6077, "bảo_lãnh": 6078, "hẻm": 6079, "lâu_đời": 6080, "Lập": 6081, "VN-Index": 6082, "9,@@": 6083, "nhà_đất": 6084, "trung_thực": 6085, "đầu_vào": 6086, "liveshow": 6087, "Khách_hàng": 6088, "hội_tụ": 6089, "Youtube": 6090, "C-@@": 6091, "Núi": 6092, "họ_hàng": 6093, "Thượng_viện": 6094, "toàn_thể": 6095, "tàn_phá": 6096, "tiêu_huỷ": 6097, "Trái_Đất": 6098, "sóng_gió": 6099, "8,@@": 6100, "nhái": 6101, "đồ_hoạ": 6102, "lục": 6103, "dắt": 6104, "mở_màn": 6105, "Tuyết": 6106, "tion": 6107, "man@@": 6108, "thể_dục": 6109, "Số_lượng": 6110, "1960": 6111, "đế": 6112, "ell@@": 6113, "Z": 6114, "_l@@": 6115, "suýt": 6116, "Ber@@": 6117, "Chợ": 6118, "điển_trai": 6119, "Cal@@": 6120, "thiệt_thòi": 6121, "pe@@": 6122, "cởi_mở": 6123, "tụ_tập": 6124, "tâm_linh": 6125, "tân_binh": 6126, "Chú": 6127, "khuyến_mãi": 6128, "ướt": 6129, "Phước_@@": 6130, "vùng_cao": 6131, "29@@": 6132, "thương_lái": 6133, "hầu": 6134, "canh_tác": 6135, "hiếp_dâm": 6136, "Moskva": 6137, "thế_trận": 6138, "4-@@": 6139, "háo_hức": 6140, "phu_nhân": 6141, "sét": 6142, "đệm": 6143, "thanh_lịch": 6144, "hình_tượng": 6145, "môn_học": 6146, "bóc": 6147, "19/@@": 6148, "nêm": 6149, "Đ": 6150, "Hỗ_trợ": 6151, "xẻ": 6152, "giờ_địa_phương": 6153, "âm_lịch": 6154, "chuẩn_mực": 6155, "bộ_binh": 6156, "thai_nhi": 6157, "hoạ": 6158, "đau_lòng": 6159, "nghiêm_ngặt": 6160, "nốt": 6161, "bánh_mì": 6162, "the@@": 6163, "dung_tích": 6164, "bền": 6165, "USB": 6166, "1984": 6167, "ent": 6168, "đặc": 6169, "nhân_loại": 6170, "tốp": 6171, "búp_bê": 6172, "kẹo": 6173, "Tường": 6174, "3-4": 6175, "bus": 6176, "Ngày_nay": 6177, "gạt": 6178, "Vietlott": 6179, "Giờ_đây": 6180, "chủ_nhiệm": 6181, "St@@": 6182, "MobiFone": 6183, "đến_nỗi": 6184, "Triều": 6185, "|": 6186, "Ju@@": 6187, "lót": 6188, "cứu_hoả": 6189, "du@@": 6190, "thầu": 6191, "lão_hoá": 6192, "tự_sát": 6193, "thế_lực": 6194, "Tp.": 6195, "canxi": 6196, "Nguyên_liệu": 6197, "võ_thuật": 6198, "rung": 6199, "đắt_đỏ": 6200, "chuồng": 6201, "07": 6202, "tố_tụng": 6203, "vọt": 6204, "li": 6205, "nước_nhà": 6206, "Bệnh_nhân": 6207, "số_ít": 6208, "Cho@@": 6209, "Ta@@": 6210, "Càng": 6211, "land": 6212, "teen": 6213, "cầu_vượt": 6214, "thon": 6215, "94": 6216, "đục": 6217, "quân_nhân": 6218, "Lee_@@": 6219, "dịu": 6220, "ca@@": 6221, "pháp": 6222, "Độ_ẩm": 6223, "vội_vàng": 6224, "Huân_chương": 6225, "Vị_trí": 6226, "Nguyễn_Xuân_@@": 6227, "sân_cỏ": 6228, "vậy_mà": 6229, "dòng_chảy": 6230, "Đồn": 6231, "VI@@": 6232, "_R@@": 6233, "khỉ": 6234, "Giám_đốc_điều_hành": 6235, "ừ": 6236, "Phùng_@@": 6237, "Trời": 6238, "thuyền_trưởng": 6239, "S-@@": 6240, "Vốn": 6241, "tiện_lợi": 6242, "gai": 6243, "Mối": 6244, "J": 6245, "sáng_tỏ": 6246, "NH@@": 6247, "quyển": 6248, "nhà_tù": 6249, "rút_lui": 6250, "tử_hình": 6251, "au": 6252, "giả_mạo": 6253, "kích": 6254, "hoá_thân": 6255, "trung_học": 6256, "xúc_phạm": 6257, "âm_thầm": 6258, "tái_hiện": 6259, "dự_luật": 6260, "Bà_Rịa": 6261, "lắc": 6262, "ari@@": 6263, "Roma": 6264, "tui": 6265, "kì": 6266, "Độ": 6267, "97": 6268, "truyền_tải": 6269, "NXB": 6270, "rể": 6271, "125": 6272, "điểm_số": 6273, "NTK": 6274, "Mông": 6275, "vương_miện": 6276, "Thuỷ_Tiên": 6277, "40@@": 6278, "Ra@@": 6279, "Bắc_Mỹ": 6280, "ô@@": 6281, "25/@@": 6282, "ngh@@": 6283, "gót": 6284, "ban_ngày": 6285, "era": 6286, "ler": 6287, "For@@": 6288, "Lại": 6289, "kè": 6290, "cường_độ": 6291, "Sự_nghiệp": 6292, "Thượng_@@": 6293, "Đời_sống": 6294, "nuốt": 6295, "ck": 6296, "lọ": 6297, "quyền_sở_hữu": 6298, "khán_đài": 6299, "lây_lan": 6300, "Thông_báo": 6301, "Ros@@": 6302, "kỹ_thuật_số": 6303, "kỷ": 6304, "dở": 6305, "Chiến_thắng": 6306, "LĐ": 6307, "khuyến_mại": 6308, "tor": 6309, "bảo_hiểm_y_tế": 6310, "tuổi_thọ": 6311, "thiếu_hụt": 6312, "ff@@": 6313, "ND": 6314, "tiểu_thương": 6315, "nổ_súng": 6316, "ck@@": 6317, "bấy_giờ": 6318, "é": 6319, "hiện_hữu": 6320, "Wenger": 6321, "tình_cờ": 6322, "for@@": 6323, "Phong_@@": 6324, "Vẻ": 6325, "Nhà_văn": 6326, "AN": 6327, "Tối_cao": 6328, "nghiêm_khắc": 6329, "vận_dụng": 6330, "Phóng_viên": 6331, "tiến_triển": 6332, "it": 6333, "văng": 6334, "Duyên": 6335, "Tư_lệnh": 6336, "ấn_định": 6337, "nhậm_chức": 6338, "QĐ-TTg": 6339, "VOV.VN": 6340, "Căn": 6341, "160": 6342, "lật_đổ": 6343, "sex": 6344, "Sơn_Trà": 6345, "bảo_hành": 6346, "hoà_nhập": 6347, "mạch_máu": 6348, "HP": 6349, "cốt": 6350, "nhà_giáo": 6351, "Zing": 6352, "1979": 6353, "ngoại_ô": 6354, "nhọn": 6355, "Đoàn_@@": 6356, "đường_thuỷ": 6357, "đinh": 6358, "quỳ": 6359, "Thương_binh": 6360, "Ge@@": 6361, "LS": 6362, "ba@@": 6363, "TR@@": 6364, "sót": 6365, "ay_@@": 6366, "ngôi_vị": 6367, "định_vị": 6368, "1.200": 6369, "Sp@@": 6370, "Vừa_qua": 6371, "af@@": 6372, "trung_gian": 6373, "end@@": 6374, "lụa": 6375, "Tình_yêu": 6376, "tao": 6377, "bế": 6378, "ano": 6379, "Xét": 6380, "Hưng_@@": 6381, "ens": 6382, "lỗ_hổng": 6383, "thân_mật": 6384, "Cristiano_Ronaldo": 6385, "ưa_thích": 6386, "lặng_lẽ": 6387, "Hôm_qua": 6388, "đương_kim": 6389, "Cửa": 6390, "sách_giáo_khoa": 6391, "SIM": 6392, "VietNamNet": 6393, "Bor@@": 6394, "hành_hung": 6395, "EC": 6396, "Bình_Chánh": 6397, "ner": 6398, "núi_lửa": 6399, "sốt_xuất_huyết": 6400, "tù_nhân": 6401, "cổ_tức": 6402, "xoài": 6403, "6-@@": 6404, "TPP": 6405, "óc": 6406, "hấp_thụ": 6407, "lộng_lẫy": 6408, "16/@@": 6409, "ếch": 6410, "sư_tử": 6411, "nữ_tính": 6412, "tương_đồng": 6413, "vật_tư": 6414, "Tư_vấn": 6415, "bại": 6416, "Croatia": 6417, "huyết": 6418, "eg@@": 6419, "dầu_thô": 6420, "Con_số": 6421, "chu_kỳ": 6422, "bè": 6423, "sứ_mệnh": 6424, "hoang": 6425, "Everton": 6426, "chuyên_dụng": 6427, "Công_văn": 6428, "Tuần_lễ": 6429, "chí": 6430, "VCK": 6431, "quyên_góp": 6432, "Sch@@": 6433, "Nhã_Phương": 6434, "hoả_hoạn": 6435, "ara": 6436, "đột_nhập": 6437, "Uống": 6438, "trễ": 6439, "khung_cảnh": 6440, "khai_báo": 6441, "đồ_đạc": 6442, "Hiệp_ước": 6443, "MP": 6444, "hiện_trạng": 6445, "tân_@@": 6446, "tro@@": 6447, "kích_cỡ": 6448, "thô": 6449, "tát": 6450, "Quang_Trung": 6451, "9.000": 6452, "Kết_luận": 6453, "La@@": 6454, "Jose_Mourinho": 6455, "28/@@": 6456, "AIDS": 6457, "Hoàn": 6458, "hình_dáng": 6459, "Giao": 6460, "My@@": 6461, "tạo_dáng": 6462, "bạo_hành": 6463, "bình_ổn": 6464, "tri_thức": 6465, "Min@@": 6466, "móc": 6467, "thể_chất": 6468, "vành_đai": 6469, "EURO": 6470, "Tô_@@": 6471, "nuôi_trồng": 6472, "Phần_Lan": 6473, "bỏ_hoang": 6474, "ine_@@": 6475, "Phiên": 6476, "công_dụng": 6477, "nọ": 6478, "Nam_Mỹ": 6479, "rách": 6480, "tràn_ngập": 6481, "tu": 6482, "Tông": 6483, "bao_lâu": 6484, "chứng_từ": 6485, "27@@": 6486, "14/@@": 6487, "đốc": 6488, "ey": 6489, "khoai_tây": 6490, "Tây_Nam": 6491, "vừa_mới": 6492, "phấn_khởi": 6493, "thuyền_viên": 6494, "mon@@": 6495, "quán_triệt": 6496, "cấp_bách": 6497, "ik@@": 6498, "Đắk_Nông": 6499, "tàng_hình": 6500, "1968": 6501, "ent@@": 6502, "quán_quân": 6503, "bình_dân": 6504, "FLC": 6505, "CH": 6506, "_F@@": 6507, "kíp": 6508, "nhát": 6509, "Hợp_đồng": 6510, "Nigeria": 6511, "nhầm_lẫn": 6512, "đề_cao": 6513, "con_giáp": 6514, "Du_khách": 6515, "0%": 6516, "lội": 6517, "or": 6518, "loạn": 6519, "cởi": 6520, "Or@@": 6521, "95%": 6522, "công_đoạn": 6523, "Ver@@": 6524, "ml": 6525, "Q.@@": 6526, "nhỏ_bé": 6527, "Km": 6528, "giam_giữ": 6529, "AN@@": 6530, "bù_đắp": 6531, "cục_bộ": 6532, "do_vậy": 6533, "Berlin": 6534, "Oanh": 6535, "thiên": 6536, "tổng_giám_đốc": 6537, "Anh_hùng": 6538, "q@@": 6539, "1,3": 6540, "lôi_kéo": 6541, "phản_công": 6542, "One": 6543, "1972": 6544, "4,5": 6545, "ngoạn_mục": 6546, "Luân": 6547, "chùm": 6548, "1983": 6549, "kháng_cáo": 6550, "nhuộm": 6551, "quy_chuẩn": 6552, "cô_lập": 6553, "nhà_hát": 6554, "CIA": 6555, "My": 6556, "_Đ@@": 6557, "đụng": 6558, "May_mắn": 6559, "thương_mại_điện_tử": 6560, "Tổng_thư_ký": 6561, "đánh_đập": 6562, "diện_mạo": 6563, "tứ": 6564, "Mạnh_@@": 6565, "Tổng_@@": 6566, "lưu_trú": 6567, "đóng_tàu": 6568, "trăn_trở": 6569, "chân_dung": 6570, "va@@": 6571, "cứng_rắn": 6572, "thương_vong": 6573, "9-@@": 6574, "đường_lối": 6575, "phát_tán": 6576, "Huyện_uỷ": 6577, "Bộ_đội": 6578, "gió_giật": 6579, "gậy": 6580, "gom": 6581, "đệ": 6582, "mất_mát": 6583, "eri": 6584, "uỷ_ban": 6585, "danh_hài": 6586, "Bal@@": 6587, "ngu@@": 6588, "Ireland": 6589, "‘": 6590, "bệnh_nhi": 6591, "len": 6592, "Bởi_vì": 6593, "nhà_quản_lý": 6594, "chèo": 6595, "tiếp_viên": 6596, "Tấn": 6597, "18/@@": 6598, "giải_đáp": 6599, "Long_Thành": 6600, "ngài": 6601, "có_điều": 6602, "thạc_sĩ": 6603, "ghen": 6604, "xôi": 6605, "chính_trị_gia": 6606, "Trải": 6607, "đàn_em": 6608, "hoả_lực": 6609, "xuất_nhập_khẩu": 6610, "CT@@": 6611, "os": 6612, "Thực_ra": 6613, "ati@@": 6614, "lẻ": 6615, "ưa": 6616, "Thạch": 6617, "re": 6618, "thiêu": 6619, "38@@": 6620, "NTM": 6621, "chị_gái": 6622, "tinh_vi": 6623, "Chỉ_huy": 6624, "ai_@@": 6625, "ounce": 6626, "toạ_đàm": 6627, "ft": 6628, "S.@@": 6629, "Đông_Bắc": 6630, "thuần": 6631, "thích_ứng": 6632, "duyên_dáng": 6633, "ranh_giới": 6634, "đắc_cử": 6635, "tỉa": 6636, "Hoàng_tử": 6637, "U20": 6638, "35@@": 6639, "đẫm": 6640, "bảo_hiểm_xã_hội": 6641, "ĐTQG": 6642, "cấp_nước": 6643, "phà": 6644, "quy_tụ": 6645, "trình_làng": 6646, "thảm_đỏ": 6647, "đôn_đốc": 6648, "Hướng": 6649, "tụt": 6650, "biểu_dương": 6651, "Đọc": 6652, "ưu_ái": 6653, "Nhớ": 6654, "ngoan": 6655, "chuyển_hướng": 6656, "trung_cấp": 6657, "sụt": 6658, "Inter": 6659, "ez@@": 6660, "ali@@": 6661, "Trọng": 6662, "Danh": 6663, "đường_bay": 6664, "sinh_động": 6665, "2021": 6666, "lướt": 6667, "chung_cuộc": 6668, "2025": 6669, "26/@@": 6670, "Bạch_Mai": 6671, "kinh_điển": 6672, "sức_sống": 6673, "Brexit": 6674, "thống_trị": 6675, "Nhân_viên": 6676, "Tuyên_giáo": 6677, "Van_Gaal": 6678, "Điển_hình": 6679, "Quá": 6680, "00": 6681, "thương_binh": 6682, "Ham@@": 6683, "phân_chia": 6684, "cự_ly": 6685, "TNGT": 6686, "đa_năng": 6687, "ve@@": 6688, "tiện_nghi": 6689, "ghi_nhớ": 6690, "tan@@": 6691, "bệnh_lý": 6692, "ý_muốn": 6693, "F-35": 6694, "dư": 6695, "22/@@": 6696, "bất_lực": 6697, "_th@@": 6698, "Uỷ_ban_nhân_dân": 6699, "chúa": 6700, "vô_tư": 6701, "lệ_phí": 6702, "Ste@@": 6703, "cuộn": 6704, "Viễn_thông": 6705, "chào_đời": 6706, "viền": 6707, "khoác": 6708, "nữ_hoàng": 6709, "ồ_ạt": 6710, "BT": 6711, "mưu_sinh": 6712, "Phạm": 6713, "tha": 6714, "nghỉ_việc": 6715, "thăng_hoa": 6716, "xâm_lược": 6717, "tor@@": 6718, "râu": 6719, "cảnh_cáo": 6720, "sản_phụ": 6721, "Đôi_khi": 6722, "Tình_hình": 6723, "model": 6724, "xem_lại": 6725, "nới": 6726, "28@@": 6727, "T-@@": 6728, "Trọng_@@": 6729, "Đỏ": 6730, "nội_thành": 6731, "thịnh_vượng": 6732, "Nguyễn_Minh_@@": 6733, "vận_tốc": 6734, "công_trường": 6735, "Hành_trình": 6736, "bôi": 6737, "thực_khách": 6738, "Hoài": 6739, "răn_đe": 6740, "hội_chợ": 6741, "vắt": 6742, "kích_động": 6743, "200@@": 6744, "ty@@": 6745, "Ban_Bí_thư": 6746, "khốc_liệt": 6747, "mg": 6748, "el_@@": 6749, "cớ": 6750, "Giảm": 6751, "rang": 6752, "tịch_thu": 6753, "Kỳ_@@": 6754, "lây_nhiễm": 6755, "một_khi": 6756, "PC@@": 6757, "đúc": 6758, "Nông_dân": 6759, "xi@@": 6760, "140": 6761, "đánh_đầu": 6762, "Is@@": 6763, "Hè": 6764, "tuổi_thơ": 6765, "nóc": 6766, "FBI": 6767, "22.@@": 6768, "17/@@": 6769, "Người_phát_ngôn": 6770, "Đội_hình": 6771, "Hội_chợ": 6772, "quạt": 6773, "27/@@": 6774, "Ba_Vì": 6775, "21/@@": 6776, "Sam@@": 6777, "hiền_lành": 6778, "cảm_động": 6779, "mãi_mãi": 6780, "Geometridae": 6781, "ngỏ": 6782, "đúp": 6783, "Khối": 6784, "Assad": 6785, "tàu_khu_trục": 6786, "Pro": 6787, "kệ": 6788, "vuông": 6789, "đạm": 6790, "con_nhỏ": 6791, "Đình": 6792, "bao_vây": 6793, "đánh_cắp": 6794, "K.@@": 6795, "lý_luận": 6796, "J.@@": 6797, "lữ_hành": 6798, "ua": 6799, "cá_thể": 6800, "tải_trọng": 6801, "hậu_trường": 6802, "ODA": 6803, "cá_tra": 6804, "nghi_lễ": 6805, "mở_đầu": 6806, "ngẫu_nhiên": 6807, "làm_khách": 6808, "từ_từ": 6809, "Sức_khoẻ": 6810, "29/@@": 6811, "chấn_động": 6812, "Tám": 6813, "Val@@": 6814, "hít": 6815, "Điền": 6816, "ngoài_ra": 6817, "kinh_ngạc": 6818, "dàn_dựng": 6819, "U21": 6820, "he@@": 6821, "ev": 6822, "age": 6823, "sản_sinh": 6824, "50@@": 6825, "dễ_chịu": 6826, "Hari_Won": 6827, "tuỳ_thuộc": 6828, "sơ": 6829, "360": 6830, "quất": 6831, "danh_giá": 6832, "Quan_hệ": 6833, "máy_chủ": 6834, "Tạo": 6835, "long": 6836, "Gặp": 6837, "Ngay_lập_tức": 6838, "lin@@": 6839, "phàn_nàn": 6840, "Bộ_Tư_lệnh": 6841, "Việt_kiều": 6842, "Tham_dự": 6843, "vững_mạnh": 6844, "giặc": 6845, "Khả_năng": 6846, "ch_@@": 6847, "cúi": 6848, "đính": 6849, "gợi": 6850, "www.@@": 6851, "Không_gian": 6852, "rớt": 6853, "phế_liệu": 6854, "tỷ_trọng": 6855, "hệ_sinh_thái": 6856, "mạ": 6857, "tình_thế": 6858, "60.000": 6859, "Hy_vọng": 6860, "NG@@": 6861, "ada": 6862, "ôi": 6863, "huỷ_diệt": 6864, "Điệp": 6865, "logo": 6866, "Ứng_dụng": 6867, "Ben@@": 6868, "Chất_lượng": 6869, "Niềm": 6870, "hải_lý": 6871, "hông": 6872, "_h@@": 6873, "We@@": 6874, "hoài_nghi": 6875, "trái_đất": 6876, "tiếp_thị": 6877, "hộp_số": 6878, "tiêu_chảy": 6879, "hứng_thú": 6880, "Nguyệt": 6881, "Ca@@": 6882, "vo": 6883, "phụ_cấp": 6884, "1981": 6885, "Bank": 6886, "chế_tài": 6887, "biết_bao": 6888, "Hữu_Thắng": 6889, "tập_kết": 6890, "ông_xã": 6891, "ty": 6892, "ít_nhiều": 6893, "Chống": 6894, "des": 6895, "Chắc_chắn": 6896, "buộc_tội": 6897, "Sân_bay": 6898, "xấp_xỉ": 6899, "Chi_nhánh": 6900, "ton_@@": 6901, "ích": 6902, "căn_bản": 6903, "TC": 6904, "24/@@": 6905, "Trung_Hoa": 6906, "chuyên_trách": 6907, "10-@@": 6908, "trầm": 6909, "binh_lính": 6910, "1,6": 6911, "Nỗi": 6912, "sọ": 6913, "đầu_bếp": 6914, "mật_khẩu": 6915, "450": 6916, "Quyên": 6917, "Quy_chế": 6918, "thích_nghi": 6919, "hạm": 6920, "chỉ_dẫn": 6921, "hô": 6922, "hiểm": 6923, "Tìm": 6924, "2.500": 6925, "mỳ": 6926, "phong_tục": 6927, "luận": 6928, "Đường_sắt": 6929, "miễn_dịch": 6930, "nể": 6931, "Trường_Sơn": 6932, "Vua": 6933, "Khải": 6934, "vĩnh_viễn": 6935, "Tấn_@@": 6936, "tiên": 6937, "Dortmund": 6938, "đuối": 6939, "Cú": 6940, "Mô_hình": 6941, "GPMB": 6942, "ù": 6943, "DJ": 6944, "Câu_lạc_bộ": 6945, "Hương_Giang": 6946, "Gar@@": 6947, "Thiết_bị": 6948, "Đậu": 6949, "cầu_thang": 6950, ".com.": 6951, "Bắt_đầu": 6952, "chủ_đạo": 6953, "Thoả_thuận": 6954, "like": 6955, "Khách_sạn": 6956, "Màu": 6957, "Vĩnh": 6958, "Đại_tướng": 6959, "sắc_màu": 6960, "thương_lượng": 6961, "chiến_lược_gia": 6962, "Đàn_ông": 6963, "Chọn": 6964, "Điều_tra": 6965, "Thị": 6966, "Tác_phẩm": 6967, "tin@@": 6968, "trào": 6969, "Scotland": 6970, "Damascus": 6971, "nguy_hại": 6972, "thường_trú": 6973, "Nhân_@@": 6974, "cách_biệt": 6975, "Trung_đoàn": 6976, "chỉ_thị": 6977, "nòng": 6978, "tha_thứ": 6979, "hệ_số": 6980, "quỹ_đạo": 6981, "TĐ": 6982, "Pu@@": 6983, "Vy": 6984, "quyết_toán": 6985, "Thanh_Hà": 6986, "ắc": 6987, "đổ_vỡ": 6988, "es_@@": 6989, "23/@@": 6990, "quy_luật": 6991, "á": 6992, "Nay": 6993, "bẩm_sinh": 6994, "có_thai": 6995, "lôi": 6996, "thuận": 6997, "vật_lý": 6998, "thực_ra": 6999, "ba_mẹ": 7000, "ano@@": 7001, "tù_giam": 7002, "Mục_đích": 7003, "đực": 7004, "Noel": 7005, "Mười": 7006, "hàn": 7007, "1/2": 7008, "don": 7009, "Liên_hoan": 7010, "giai_điệu": 7011, "kho@@": 7012, "eri@@": 7013, "dân_làng": 7014, "dữ": 7015, "Los_Angeles": 7016, "3-0": 7017, "công_sở": 7018, "kiên_nhẫn": 7019, "số_một": 7020, "soạn": 7021, "mũ_bảo_hiểm": 7022, "Trung_tướng": 7023, "Hạm_đội": 7024, "vương_quốc": 7025, "Bố_mẹ": 7026, "lòng_đường": 7027, "Tên_lửa": 7028, "Nhà_@@": 7029, "hành_lý": 7030, "Đội_tuyển": 7031, "sắm": 7032, "nội_y": 7033, "đột_quỵ": 7034, "Robert_@@": 7035, "thẩm_phán": 7036, "thay_mặt": 7037, "năng": 7038, "90@@": 7039, "AI": 7040, "tượng_trưng": 7041, "Manchester": 7042, "SJC": 7043, "xu": 7044, "nha": 7045, "số_hiệu": 7046, "nạo_vét": 7047, "kết_án": 7048, "chì": 7049, "mềm_mại": 7050, "chi_phối": 7051, "1976": 7052, "Man_United": 7053, "ông_@@": 7054, "Nâng": 7055, "Thiếu": 7056, "Thế_là": 7057, "trả_thù": 7058, "Audi": 7059, "dấy": 7060, "za": 7061, "ang_@@": 7062, "nghiệm_thu": 7063, "Trung_tá": 7064, "tổ_tiên": 7065, "CC": 7066, "Vậy_mà": 7067, "1/8": 7068, "lũ_lụt": 7069, "tín_ngưỡng": 7070, "Tân_Phú": 7071, "phần_thưởng": 7072, "bỏ_rơi": 7073, "dân_thường": 7074, "thiếu_niên": 7075, "Cận_cảnh": 7076, "cá_sấu": 7077, "ari": 7078, "phấn": 7079, "chuyên_khoa": 7080, "lang_thang": 7081, "Bảo_an": 7082, "cây_cảnh": 7083, "CATP": 7084, "dòng_họ": 7085, "11@@": 7086, "tất_yếu": 7087, "quanh_năm": 7088, "tạo_dựng": 7089, "TDTT": 7090, "dấu_vết": 7091, "Getty": 7092, "ran@@": 7093, "hệ_luỵ": 7094, "Văn_bản": 7095, "nhuyễn": 7096, "Cảm_ơn": 7097, "hàng_hiệu": 7098, "bàn_phím": 7099, "st": 7100, "tưởng_chừng": 7101, "hữu": 7102, "cốt_lõi": 7103, "ten@@": 7104, "1,8": 7105, "giết_mổ": 7106, "nhà_riêng": 7107, "Sắp": 7108, "Bình_Tân": 7109, "Đối_tác": 7110, "đồ_dùng": 7111, "Khán_giả": 7112, "#": 7113, "cơ_bắp": 7114, "nhỉ": 7115, "Lạc": 7116, "nôn": 7117, "keo": 7118, "công_phu": 7119, "ASIAD": 7120, "hữu_hiệu": 7121, "băm": 7122, "thành_đạt": 7123, "Huy_@@": 7124, "chuyên_viên": 7125, "Truyền_hình": 7126, "trước_kia": 7127, "Cao": 7128, "Lý_Sơn": 7129, "hấp": 7130, "hành_xử": 7131, "25.000": 7132, "Khôi": 7133, "hình_dung": 7134, "ro": 7135, "vs": 7136, "ala": 7137, "Mua": 7138, "oxy_hoá": 7139, "13.@@": 7140, "sẹo": 7141, "At@@": 7142, "mạnh_tay": 7143, "hứng_chịu": 7144, "Thăng": 7145, "NĐT": 7146, "đẩy_lùi": 7147, "châu_lục": 7148, "thiêng_liêng": 7149, "Kiều": 7150, "26@@": 7151, "nhất_thiết": 7152, "đời_thường": 7153, "khoả_thân": 7154, "ill@@": 7155, "lịch_trình": 7156, "tâm_bão": 7157, "xô": 7158, "dệt": 7159, "gây_rối": 7160, "PL": 7161, "Cam@@": 7162, "Tư_@@": 7163, "rưỡi": 7164, "Vạn_@@": 7165, "dẹp": 7166, "AT@@": 7167, "Vietnamnet": 7168, "Đa_số": 7169, "gu": 7170, "phẫn_nộ": 7171, "khuẩn": 7172, "công_@@": 7173, "thí_nghiệm": 7174, "Điện_Biên_Phủ": 7175, "sương": 7176, "gián_đoạn": 7177, "í@@": 7178, "giặt": 7179, "13/@@": 7180, "xé": 7181, "hậu_thuẫn": 7182, "Sina": 7183, "Pan@@": 7184, "dệt_may": 7185, "chạy_đua": 7186, "CD": 7187, "ex": 7188, "1973": 7189, "Cách_mạng": 7190, "XIV": 7191, "cọc": 7192, "chót": 7193, "Hàng_loạt": 7194, "trăng": 7195, "rêu": 7196, "vắc_xin": 7197, "Hậu_quả": 7198, "năng_khiếu": 7199, "sành_điệu": 7200, "US@@": 7201, "oC": 7202, "khởi_điểm": 7203, "cải_lương": 7204, "áo_khoác": 7205, "khát_vọng": 7206, "Đề_nghị": 7207, "vé_số": 7208, "thuỷ_tinh": 7209, "Wal@@": 7210, "giò": 7211, "dứa": 7212, "cơ_sở_dữ_liệu": 7213, "hộ_chiếu": 7214, "thung_lũng": 7215, "_tr@@": 7216, "bịt": 7217, "Đông_Anh": 7218, "UEFA": 7219, "hi@@": 7220, "for": 7221, "hơn_bao_giờ_hết": 7222, "thông_cảm": 7223, "nhận_dạng": 7224, "19.@@": 7225, "1978": 7226, "sữa_chua": 7227, "đồng_phạm": 7228, "Hoàng_Văn_@@": 7229, "Lầu_Năm_Góc": 7230, "ra_tay": 7231, "ê": 7232, "cơn_sốt": 7233, "xác_lập": 7234, "lệ": 7235, "khởi": 7236, "biết_ơn": 7237, "phần_cứng": 7238, "nghị_định": 7239, "ker": 7240, "c-@@": 7241, "lén": 7242, "trình_duyệt": 7243, "San_@@": 7244, "giã": 7245, "bàn_bạc": 7246, "hang_động": 7247, "khích_lệ": 7248, "up": 7249, "đại_@@": 7250, "Lá": 7251, "Airlines": 7252, "để_dành": 7253, "ĐTVN": 7254, "ái": 7255, "phím": 7256, "12%": 7257, "Bích": 7258, "cơ_khí": 7259, "SE@@": 7260, "Bình_Minh": 7261, "thâm": 7262, "con_tin": 7263, "ts@@": 7264, "ăn_@@": 7265, "Giải_pháp": 7266, "IMF": 7267, "siêu_âm": 7268, "/@@": 7269, "kov": 7270, "đặc_tính": 7271, "ủ": 7272, "bất_kể": 7273, "inh": 7274, "hộ_khẩu": 7275, "Bích_@@": 7276, "Màn": 7277, "Thanh_Trì": 7278, "bán_dâm": 7279, "gia_chủ": 7280, "tỉ_mỉ": 7281, "ama": 7282, "mồ_côi": 7283, "Gia_Lâm": 7284, "file": 7285, "hộ_tống": 7286, "Noctuidae": 7287, "ach@@": 7288, "10,@@": 7289, "gọn_gàng": 7290, "Serbia": 7291, "tái_xuất": 7292, "Peru": 7293, "thiên_đường": 7294, "der@@": 7295, "sa_mạc": 7296, "SUV": 7297, "Lưu": 7298, "Nguyên_@@": 7299, "Hân": 7300, "trút": 7301, "150.000": 7302, "kiểm": 7303, "chu@@": 7304, "ghi_chép": 7305, "oo@@": 7306, "khéo": 7307, "MB": 7308, "bao_bì": 7309, "khắt_khe": 7310, "biệt": 7311, "Hà_Hồ": 7312, "đảo_chính": 7313, "ani@@": 7314, "37@@": 7315, "Bra@@": 7316, "lập_trường": 7317, "ash@@": 7318, "ngang_nhiên": 7319, "Năm_ngoái": 7320, "Năng_lượng": 7321, "tế-xã": 7322, "17.@@": 7323, "bàng_hoàng": 7324, "F-@@": 7325, "nhộn_nhịp": 7326, "TƯ": 7327, "tất": 7328, "độc_thân": 7329, "UAE": 7330, "Tam": 7331, "phóng_xạ": 7332, "Nguyễn_Thị_Kim_Ngân": 7333, "Em@@": 7334, "khát": 7335, "thiên_thần": 7336, "cầu_kỳ": 7337, "sp@@": 7338, "Pal@@": 7339, "1974": 7340, "Nadal": 7341, "trình_tự": 7342, "Hội_đồng_quản_trị": 7343, "đức": 7344, "kỳ_diệu": 7345, "Hùng_@@": 7346, "gieo": 7347, "chủ_nhật": 7348, "stress": 7349, "lặng": 7350, "be": 7351, "vùng_sâu": 7352, "Sa_Pa": 7353, "115": 7354, "tây_nam": 7355, "nương": 7356, "2.0": 7357, "ver": 7358, "hồn_nhiên": 7359, "ce@@": 7360, "Tổng_Thư_ký": 7361, "lĩnh": 7362, "Cho_nên": 7363, "tự_phát": 7364, "Phường": 7365, "phân_luồng": 7366, "thuở": 7367, "lúng_túng": 7368, "VKS": 7369, "hội_chứng": 7370, "Mùi": 7371, "Sơn_Tây": 7372, "Viet@@": 7373, "TN@@": 7374, "đăng_cai": 7375, "39@@": 7376, "vá": 7377, "thấu": 7378, "laser": 7379, "Cánh": 7380, "Tuổi_trẻ": 7381, "ur": 7382, "Uruguay": 7383, "Uỷ_ban_Nhân_dân": 7384, "Sư_đoàn": 7385, "Mat@@": 7386, "ra_sức": 7387, "TMCP": 7388, "Tuỳ": 7389, "ao@@": 7390, "khiêu_khích": 7391, "chuyên_án": 7392, "mô_phỏng": 7393, "Miss_@@": 7394, "bộ_nhớ": 7395, "KT": 7396, "Florida": 7397, "mác": 7398, "5,5": 7399, "khuất": 7400, "Bắt": 7401, "Tháp": 7402, "bo": 7403, "Bloomberg": 7404, "3-1": 7405, "Lớn": 7406, "Hường": 7407, "Trước_mắt": 7408, "vo@@": 7409, "đấm": 7410, "ke@@": 7411, "Quán": 7412, "tiền_nhiệm": 7413, "Sở_hữu": 7414, "quần_vợt": 7415, "hỗn_loạn": 7416, "Gò_Vấp": 7417, "Xuất_hiện": 7418, "i_t@@": 7419, "Pri@@": 7420, "cuộc_chơi": 7421, "Minh_Hằng": 7422, "ghi_âm": 7423, "lấn": 7424, "Tôn_@@": 7425, "ì": 7426, "ge": 7427, "hoảng_loạn": 7428, "mộc": 7429, "thu@@": 7430, "2/3": 7431, "lùm": 7432, "Đồng_@@": 7433, "Thực_phẩm": 7434, "Che@@": 7435, "Đưa": 7436, "huỷ_hoại": 7437, "bảo_trợ": 7438, "D.@@": 7439, "Na@@": 7440, "uy@@": 7441, "vùi": 7442, "Hoàng_Thị_@@": 7443, "trí_thức": 7444, "Nàng": 7445, "bắp": 7446, "thời_lượng": 7447, "Trần_Ngọc_@@": 7448, "sưu_tầm": 7449, "an_ủi": 7450, "cẩn_trọng": 7451, "60@@": 7452, ".0@@": 7453, "Bất_động_sản": 7454, "Yu@@": 7455, "Ankara": 7456, "truyền_cảm": 7457, "nhiếp_ảnh": 7458, "trì_hoãn": 7459, "rút_tiền": 7460, "Sức": 7461, "ida": 7462, "cấm_vận": 7463, "bao_phủ": 7464, "đắt_giá": 7465, "Đ.@@": 7466, "đầu_tay": 7467, "Mer@@": 7468, "thông_thoáng": 7469, "Hùng_Vương": 7470, "Taliban": 7471, "chính_quy": 7472, "Huyền_@@": 7473, "san_hô": 7474, "gián_tiếp": 7475, "bộ_đồ": 7476, "Han@@": 7477, "tum": 7478, "ngoại_trừ": 7479, "tội_ác": 7480, "Vua_@@": 7481, "Cuốn": 7482, "cấy": 7483, "15,@@": 7484, "Kỳ_Anh": 7485, "Trung_thu": 7486, "Dubai": 7487, "Vietnam_@@": 7488, "Hỏi": 7489, "thiếu_thốn": 7490, "Nm": 7491, "quần_thể": 7492, "quái": 7493, "sơ_mi": 7494, "Hoài_@@": 7495, "địa_chất": 7496, "ân": 7497, "phản_bội": 7498, "dư_nợ": 7499, "Lai": 7500, "Valencia": 7501, "học_đường": 7502, "Bữa": 7503, "Tuấn_Hưng": 7504, "trí_nhớ": 7505, "đàn_anh": 7506, "Phòng_chống": 7507, "Dẫu": 7508, "Kiến_trúc": 7509, "bể_bơi": 7510, "măng": 7511, "bán_chạy": 7512, "nguyên_vẹn": 7513, "biến_dạng": 7514, "Đăng_@@": 7515, "tiến_công": 7516, "bỗng_dưng": 7517, "Gương_mặt": 7518, "buồng": 7519, "tham": 7520, "Texas": 7521, "hư_hại": 7522, "điệp_viên": 7523, "Bas@@": 7524, "Đ.": 7525, "Dân_tộc": 7526, "ngứa": 7527, "ục": 7528, "80.000": 7529, "22@@": 7530, "lung_linh": 7531, "đò": 7532, "ử": 7533, "nhốt": 7534, "rầm_rộ": 7535, "Khê": 7536, "Tiên_@@": 7537, "bầu_chọn": 7538, "đông_lạnh": 7539, "min@@": 7540, "đơn_phương": 7541, "mệnh": 7542, "Thần": 7543, "võ_sĩ": 7544, "hình_thể": 7545, "cử_nhân": 7546, "nhập_cảnh": 7547, "Eu@@": 7548, "độ_ẩm": 7549, "18.@@": 7550, "chậm_trễ": 7551, "đón_tiếp": 7552, "Đấy": 7553, "gầy": 7554, "áp_thấp_nhiệt_đới": 7555, "che_giấu": 7556, "Lưu_ý": 7557, "Củ_Chi": 7558, "Bất_chấp": 7559, "truy_tìm": 7560, "Đệ": 7561, "Hảo": 7562, "dưỡng_chất": 7563, "tế": 7564, "xót_xa": 7565, "sào": 7566, "đa_cấp": 7567, "SGK": 7568, "ràng_buộc": 7569, "am_@@": 7570, "Lý_Nhã_Kỳ": 7571, "thân_nhân": 7572, "chiều_hướng": 7573, "ức_chế": 7574, "ứ": 7575, "15.@@": 7576, "sừng": 7577, "đậm_đà": 7578, "Cung": 7579, "xa_xôi": 7580, "Quan_trọng": 7581, "chạm_trán": 7582, "to_@@": 7583, "du_thuyền": 7584, "cholesterol": 7585, "thua_kém": 7586, "M-@@": 7587, "cá_mập": 7588, "yo@@": 7589, "cừu": 7590, "SH": 7591, "tay_chân": 7592, ":@@": 7593, "trọng": 7594, "trục_trặc": 7595, "Ser@@": 7596, "VnExpress": 7597, "Cụm": 7598, "cử_chỉ": 7599, "trái_ngược": 7600, "ốp": 7601, "sắn": 7602, "mặn_mà": 7603, "Vinamilk": 7604, "Gra@@": 7605, "linh": 7606, "Quan_điểm": 7607, "mong_chờ": 7608, "mở_đường": 7609, "chiếm_đóng": 7610, "Thượng_tá": 7611, "1,4": 7612, "gặt_hái": 7613, "vũ_khí_hoá_học": 7614, "Thạnh": 7615, "bất_kì": 7616, "tệ_nạn": 7617, "16.@@": 7618, "ra_@@": 7619, "Á@@": 7620, "Air@@": 7621, "WB": 7622, "lâm_sàng": 7623, "lạc_hậu": 7624, "đầu_cơ": 7625, "Zika": 7626, "Huyền_My": 7627, "ban_ngành": 7628, "bánh_xe": 7629, "hợp_tác_xã": 7630, "Nguyễn_Quang_@@": 7631, "vác": 7632, "toạ_lạc": 7633, "n_t@@": 7634, "Mặt": 7635, "thực_đơn": 7636, "30-@@": 7637, "lời_lẽ": 7638, "hài_cốt": 7639, "CA@@": 7640, "thông_tư": 7641, "Col@@": 7642, "ngày_tháng": 7643, "thi@@": 7644, "we@@": 7645, "May": 7646, "son_@@": 7647, "thanh_lý": 7648, "đông_đúc": 7649, "bất_bình": 7650, "ell": 7651, "cà_rốt": 7652, "phát_nổ": 7653, "hét": 7654, "ir": 7655, "bàn_chân": 7656, "Nội": 7657, "lan@@": 7658, "hacker": 7659, "liên_quân": 7660, "tinh_trùng": 7661, "Tehran": 7662, "đường_cong": 7663, "ino@@": 7664, "bí_thư": 7665, "Hạt": 7666, "xích": 7667, "pa": 7668, "Hình": 7669, "12.000": 7670, "1950": 7671, "Bel@@": 7672, "thấu_hiểu": 7673, "Tử": 7674, "Mong": 7675, "Vin@@": 7676, "massage": 7677, "Nguyễn_Hoàng_@@": 7678, "cây_số": 7679, "đường_hầm": 7680, "170": 7681, "lều": 7682, "vùng_xa": 7683, "liên_thông": 7684, "mong_manh": 7685, "đẹp_trai": 7686, "tes": 7687, "Cúp": 7688, "phòng_bệnh": 7689, "Olympic_@@": 7690, "BlackBerry": 7691, "Địa_Trung_Hải": 7692, "GV": 7693, "Ca": 7694, "Điện_thoại": 7695, "Thanh_Bình": 7696, "Tình_cảm": 7697, "1,7": 7698, "res@@": 7699, "Vượt": 7700, "Kẻ": 7701, "tử_tế": 7702, "can@@": 7703, "hoàng_tử": 7704, "khát_khao": 7705, "75%": 7706, "bao_trùm": 7707, "che@@": 7708, "ero@@": 7709, "AS@@": 7710, "ám_sát": 7711, "Dường_như": 7712, "Atletico": 7713, "400.000": 7714, "giang_hồ": 7715, "mẹo": 7716, "GDVN": 7717, "vững_vàng": 7718, "bán_đấu_giá": 7719, "S-400": 7720, "mỉm": 7721, "Hàng_không": 7722, "địa_danh": 7723, "Cát": 7724, "đá_quý": 7725, "MW": 7726, "Moon": 7727, "heroin": 7728, "hỏi_thăm": 7729, "yl@@": 7730, "Dựa": 7731, "Giá_trị": 7732, "Uyên": 7733, "phòng_tránh": 7734, "khống": 7735, "phấn_khích": 7736, "Sóc_Sơn": 7737, "khuyến_nghị": 7738, "rụi": 7739, "hiền": 7740, "cầu_hôn": 7741, "ơ": 7742, "hậu_cần": 7743, "14.@@": 7744, "Nguyễn_Hồng_@@": 7745, "kẹp": 7746, "GĐ": 7747, "bà_xã": 7748, "Gươm": 7749, "cao_quý": 7750, "Diễn": 7751, "Đơn_cử": 7752, "Nguyễn_Trọng_@@": 7753, "bản_sao": 7754, "làm_thuê": 7755, "Cơ_sở": 7756, "45@@": 7757, "gia_công": 7758, ".000-@@": 7759, "Bưu_điện": 7760, "VinaPhone": 7761, "Tuyển": 7762, "bào_chữa": 7763, "gram": 7764, "Hợp": 7765, "nhân_quyền": 7766, "les": 7767, "kịch_tính": 7768, "Ninh_@@": 7769, "Bùi_Văn_@@": 7770, "quang": 7771, "đầu_gối": 7772, "Tuân": 7773, "Tác_giả": 7774, "phương_hướng": 7775, "thuế_thu_nhập": 7776, "ví_như": 7777, "quảng_trường": 7778, "Huy_chương": 7779, "Vương_Đình_Huệ": 7780, "Ngọc_Anh": 7781, "Donetsk": 7782, "Hào": 7783, "tương_xứng": 7784, "vội_vã": 7785, "ICTnews": 7786, "lột_xác": 7787, "ngập_lụt": 7788, "cầm_đầu": 7789, "tạt": 7790, "điện_toán": 7791, "ức": 7792, "xùm": 7793, "Quyết": 7794, "nhăn": 7795, "AFC": 7796, "kiến_trúc_sư": 7797, "ae@@": 7798, "độc_tố": 7799, "điểm_nóng": 7800, "DA": 7801, "lí_do": 7802, "Xá": 7803, "sáng_giá": 7804, "Victoria": 7805, "201@@": 7806, "Tiếp_theo": 7807, "sát_thủ": 7808, "ans": 7809, "Wi@@": 7810, "Far@@": 7811, "tin_tặc": 7812, "thoả_đáng": 7813, "rót": 7814, "1977": 7815, "Đồng_bằng": 7816, "V-@@": 7817, "01/@@": 7818, "hiệp_hội": 7819, "giải_khát": 7820, "mắm": 7821, "1954": 7822, "sk": 7823, "VGP": 7824, "Khương": 7825, "diễu_hành": 7826, "quấn": 7827, "Chất": 7828, "Lộc_@@": 7829, "tạng": 7830, "calo": 7831, "Táo": 7832, "thuật": 7833, "bùng": 7834, "phản_biện": 7835, "n_th@@": 7836, "ite": 7837, "Lực": 7838, "Chi_phí": 7839, "ú": 7840, "đương_đại": 7841, "viếng": 7842, "tình_nguyện_viên": 7843, "ina_@@": 7844, "Federer": 7845, "khoai": 7846, "mộng": 7847, "lâm_nghiệp": 7848, "XI": 7849, "Wi-Fi": 7850, "Trước_hết": 7851, "Pha": 7852, "đũa": 7853, "quỷ": 7854, "yêu_quý": 7855, "Xuyên": 7856, "ry@@": 7857, "ng_t@@": 7858, "Da@@": 7859, "ale": 7860, "Cổ_@@": 7861, "lâu_đài": 7862, "cực_đại": 7863, "khởi_sắc": 7864, "Cerambycidae": 7865, "nữ_giới": 7866, "mer@@": 7867, "tràn_đầy": 7868, "4-5": 7869, "Galaxy_Note": 7870, "thầy_cô_giáo": 7871, "nhiệt_điện": 7872, "nu@@": 7873, "Chủ_nhật": 7874, "Mazda": 7875, "tuổi_tác": 7876, "cor@@": 7877, "20.@@": 7878, "siêu_sao": 7879, "WHO": 7880, "nội_trợ": 7881, "cầu_nối": 7882, "bàn_tán": 7883, "tiêm_chủng": 7884, "Hồng_Nhung": 7885, "thông_cáo": 7886, "Tóc_Tiên": 7887, "X-@@": 7888, "ess@@": 7889, "16,@@": 7890, "trong_sạch": 7891, "khai_quật": 7892, "nhiệt_huyết": 7893, "lưới_điện": 7894, "trên_dưới": 7895, "phòng_vệ": 7896, "trèo": 7897, "Ly@@": 7898, "thượng": 7899, "mìn": 7900, "Quý_@@": 7901, "thoại": 7902, "Chi_Pu": 7903, "dân_sinh": 7904, "18,@@": 7905, "bài_thuốc": 7906, "1967": 7907, "1.3@@": 7908, "Bur@@": 7909, "Kiến_Thức": 7910, "hồi_hộp": 7911, "Tín": 7912, "Zing.vn": 7913, "kế_tiếp": 7914, "bãi_bỏ": 7915, "Đông_Nhi": 7916, "Công_ước": 7917, "thề": 7918, "biên_tập": 7919, "thuế_suất": 7920, "kinh_dị": 7921, "Mac@@": 7922, "xế": 7923, "ình": 7924, "Nguyễn_Trãi": 7925, "nam_nữ": 7926, "phản": 7927, "ex@@": 7928, "LĐBĐ": 7929, "bẻ": 7930, "si": 7931, "điền": 7932, "Getty_Images": 7933, "giao_tranh": 7934, "khởi_hành": 7935, "ả": 7936, "Mưa": 7937, "học_giả": 7938, "Bách_khoa": 7939, "Tổng_số": 7940, "11,@@": 7941, "XK": 7942, "vụn": 7943, "ngả": 7944, "thủ_phủ": 7945, "Tin_Tức": 7946, "căn_cứ_quân_sự": 7947, "biến_thể": 7948, "CS": 7949, "Đinh_La_Thăng": 7950, "đầu_lòng": 7951, "KTĐT": 7952, "1/5": 7953, "Quang_Hải": 7954, "12,@@": 7955, "phương_châm": 7956, "chéo": 7957, "AM@@": 7958, "1.4@@": 7959, "Au@@": 7960, "sống_động": 7961, "GT": 7962, "VHTTDL": 7963, "Bến": 7964, "Thu_Minh": 7965, "hoạch_định": 7966, "dã_man": 7967, "dứt": 7968, "Thanh_Hằng": 7969, "Atletico_Madrid": 7970, "xuất_thân": 7971, "km2": 7972, "mép": 7973, "New@@": 7974, "hối_hận": 7975, "ATTP": 7976, "Đạo": 7977, "Na": 7978, "ổi": 7979, "series": 7980, "bong": 7981, "Thủ_Thiêm": 7982, "cổ_tích": 7983, "Lý_giải": 7984, "dưa_hấu": 7985, "nón": 7986, "ji": 7987, "Triệu": 7988, "13,@@": 7989, "kỉ_niệm": 7990, "tái_chế": 7991, "tảng": 7992, "Ra": 7993, "tang": 7994, "cổ_đại": 7995, "Thành_viên": 7996, "phải_chăng": 7997, "thang_máy": 7998, "cao_độ": 7999, "xa_xỉ": 8000, "mương": 8001, "bồn": 8002, "Ngọc_Sơn": 8003, "thừa_kế": 8004, "Nguyễn_Thiện_Nhân": 8005, "tồn_kho": 8006, "thế_là": 8007, "Nhân_vật": 8008, "Ka@@": 8009, "1.5@@": 8010, "uỷ_viên": 8011, "Tấm": 8012, "ghe": 8013, "ek": 8014, "hợp_chất": 8015, "đột_xuất": 8016, "eli@@": 8017, "Dầu": 8018, "tần_suất": 8019, "ngo@@": 8020, "ố": 8021, "35%": 8022, "vòm": 8023, "trăm_năm": 8024, "chọc": 8025, "ram@@": 8026, "Sar@@": 8027, "Đông_Á": 8028, "nhồi": 8029, "ứng_cử": 8030, "dự_tính": 8031, "Mercedes": 8032, "cảnh_tượng": 8033, "lạnh_lùng": 8034, "ed_@@": 8035, "tâm_trí": 8036, "Un@@": 8037, "World": 8038, "Âm_nhạc": 8039, "tình_nhân": 8040, "vô_lý": 8041, "0,5": 8042, "Hi@@": 8043, "Kho@@": 8044, "Đất_đai": 8045, "Quan": 8046, "mắng": 8047, "Nhạc_sĩ": 8048, "Vũ_Văn_@@": 8049, "Man": 8050, "Ta": 8051, "điện_năng": 8052, "phim_điện_ảnh": 8053, "khao_khát": 8054, "thiếu_sót": 8055, "oc@@": 8056, "Mông_Cổ": 8057, "NASA": 8058, "dung_dịch": 8059, "ides": 8060, "Thuỷ_điện": 8061, "toán_học": 8062, "xác_thực": 8063, "mer": 8064, "lin": 8065, "105": 8066, "động_mạch": 8067, "tay_đua": 8068, "Giêng": 8069, "thị_thực": 8070, "đích_thực": 8071, "đan": 8072, "kiểm_lâm": 8073, "mông": 8074, "áp_đảo": 8075, "all@@": 8076, "lắc_đầu": 8077, "lề_đường": 8078, "ắt": 8079, "VH": 8080, "dân_ca": 8081, "Phụng": 8082, "Cổng": 8083, "WTO": 8084, "ngấm": 8085, "Thuý_@@": 8086, "Lionel_Messi": 8087, "Nu@@": 8088, "NN-PTNT": 8089, "thường_ngày": 8090, "bồ": 8091, "Trẻ_em": 8092, "đồng_@@": 8093, "Thượng_tướng": 8094, "rạch": 8095, "thứ_tự": 8096, "toát": 8097, "Điện_ảnh": 8098, "Sacombank": 8099, "thăm_khám": 8100, "ung_@@": 8101, "lũ_quét": 8102, "nhiễm_khuẩn": 8103, "ü@@": 8104, "ol": 8105, "Đông_Dương": 8106, "trục_xuất": 8107, "xe_điện": 8108, "biếu": 8109, "vòng_tay": 8110, "Thuỳ": 8111, "Lan_Khuê": 8112, "Times": 8113, "nhỏ_lẻ": 8114, "Bá_@@": 8115, "cưa": 8116, "hoàng_gia": 8117, "phẳng": 8118, "liệt_sỹ": 8119, "vật_nuôi": 8120, "gõ": 8121, "xe_gắn_máy": 8122, "Kinh": 8123, "HCB": 8124, "ăn_ở": 8125, "ste@@": 8126, "say_mê": 8127, "ber": 8128, "Sở_dĩ": 8129, "QĐ-UBND": 8130, "nude": 8131, "rải": 8132, "Johnson": 8133, "QL": 8134, "Hoa_khôi": 8135, "mưa_bão": 8136, "mất_ngủ": 8137, "vong": 8138, "hồi_sinh": 8139, "tận_mắt": 8140, "cương": 8141, "tật": 8142, "Nor@@": 8143, "1971": 8144, "âu": 8145, "bạn_đời": 8146, "Vương_quốc_Anh": 8147, "điêu_khắc": 8148, "Kremlin": 8149, "chợt": 8150, "a_L@@": 8151, "Định_@@": 8152, "e_ngại": 8153, "ep@@": 8154, "Lữ_đoàn": 8155, "eu@@": 8156, "Trạch": 8157, "khó_tính": 8158, "Đô_đốc": 8159, "70.000": 8160, "nghi_thức": 8161, "Hillary_Clinton": 8162, "ồng": 8163, "Monaco": 8164, "Phan_Văn_@@": 8165, "khoáng_chất": 8166, "Bắc_Kạn": 8167, "Khó": 8168, "Ngồi": 8169, "Đường_bộ": 8170, "rẫy": 8171, "80@@": 8172, "sấy": 8173, "kế_thừa": 8174, "Nhắc": 8175, "bốc_thăm": 8176, "ăn_khách": 8177, "Chu@@": 8178, "đóng_gói": 8179, "chịu_khó": 8180, "Trúc": 8181, "khuôn": 8182, "cai_nghiện": 8183, "pe": 8184, "Giết": 8185, "tiếp_diễn": 8186, "Vườn": 8187, "thẻ_đỏ": 8188, "NG": 8189, "CB@@": 8190, "lập_pháp": 8191, "Az@@": 8192, "Dar@@": 8193, "nội_chiến": 8194, "tiếp_đón": 8195, "Formosa": 8196, "Tar@@": 8197, "tượng_đài": 8198, "Sho@@": 8199, "triết_lý": 8200, "rào": 8201, "hình_dạng": 8202, "Infonet": 8203, "220": 8204, "Quách_@@": 8205, "ard@@": 8206, "ib@@": 8207, "miệt_mài": 8208, "Đặt": 8209, "í": 8210, "OS": 8211, "HNX": 8212, "ov": 8213, "Trưởng_đoàn": 8214, "rượu_bia": 8215, "ha@@": 8216, "cha_con": 8217, "Hữu": 8218, "tấp_nập": 8219, "Nguyễn_Huệ": 8220, "định_hình": 8221, "Tạ_@@": 8222, "17,@@": 8223, "Gia": 8224, "Nghề": 8225, "khang_trang": 8226, "Tâm_@@": 8227, "ải": 8228, "tình_cảnh": 8229, "1969": 8230, "khai_sinh": 8231, "12-@@": 8232, "ity": 8233, "sơ_đồ": 8234, "khai_giảng": 8235, "cào": 8236, "14,@@": 8237, "dời": 8238, "ần": 8239, "Bale": 8240, "The": 8241, "chẳng_thể": 8242, "Quảng_trường": 8243, "tưởng_nhớ": 8244, "bề_ngoài": 8245, "phạm_nhân": 8246, "ao_@@": 8247, "cóc": 8248, "nhiên": 8249, "yên_bình": 8250, "ten": 8251, "yến": 8252, "coi_thường": 8253, "War@@": 8254, "khẩu_hiệu": 8255, "đốn": 8256, "CTCK": 8257, "nước_hoa": 8258, "Sol@@": 8259, "CTV": 8260, "toàn_thân": 8261, "miếu": 8262, "rán": 8263, "hoàn_trả": 8264, "Ít": 8265, "công_chiếu": 8266, "dẻo": 8267, "tối_ngày": 8268, "ham_muốn": 8269, "mét_vuông": 8270, "lãnh": 8271, "xốp": 8272, "Mil@@": 8273, "John": 8274, "tử_thần": 8275, "alo@@": 8276, "Nguyễn_Quốc_@@": 8277, "làm_@@": 8278, "Thảo_@@": 8279, "Djokovic": 8280, "khám_xét": 8281, "ili@@": 8282, "Mang": 8283, "Yêu_cầu": 8284, "song_ca": 8285, "tích_tụ": 8286, "thoa": 8287, "Đợt": 8288, "triều_đại": 8289, "đóng_băng": 8290, "dầm": 8291, "Nhìn_chung": 8292, "mệnh_giá": 8293, "sk@@": 8294, "Dược": 8295, "TX": 8296, "thẩm_tra": 8297, "Ak@@": 8298, "osa": 8299, "điểm_cao": 8300, "Động_thái": 8301, "Giám": 8302, "thốt": 8303, "Suarez": 8304, "NV": 8305, "trơn": 8306, "ta_@@": 8307, "kiên_cố": 8308, "Sản_xuất": 8309, "mứt": 8310, "Âu": 8311, "Mây": 8312, "Kiểm_toán": 8313, "Michael_@@": 8314, "giơ": 8315, "TTCK": 8316, "Lang": 8317, "củi": 8318, "hoàng_đế": 8319, "23.@@": 8320, "gr": 8321, "nhân_cách": 8322, "chủng_loại": 8323, "quan_trắc": 8324, "thối": 8325, "đồng_cảm": 8326, "thư_ký": 8327, "Win@@": 8328, "hụt": 8329, "Nhiệm_vụ": 8330, "phụ_tùng": 8331, "Pleiku": 8332, "đồng_phục": 8333, "thù_địch": 8334, "âm_@@": 8335, "le_@@": 8336, "Des@@": 8337, "sinh_dục": 8338, "Nissan": 8339, "lui": 8340, "học_viện": 8341, "Trưa": 8342, "điền_kinh": 8343, "da_cam": 8344, "Phan_Thiết": 8345, "Môn": 8346, "định_mức": 8347, "Mã": 8348, "dép": 8349, "mã_hoá": 8350, "quản": 8351, "văn_chương": 8352, "Vũ_Thị_@@": 8353, "can_ngăn": 8354, "bánh_chưng": 8355, "thú_y": 8356, "Trách_nhiệm": 8357, "chảnh": 8358, "Bất_ngờ": 8359, "Kinh_@@": 8360, "LHP": 8361, "Liêm": 8362, "bước_ngoặt": 8363, "Gà": 8364, "11-@@": 8365, "quấy_rối": 8366, "mẫu_giáo": 8367, "zi@@": 8368, "ge@@": 8369, "sánh": 8370, "đầu_hàng": 8371, "vinh_quang": 8372, "Bùi_Thị_@@": 8373, "Ram@@": 8374, "750": 8375, "mát_mẻ": 8376, "12/2017": 8377, "nghiền": 8378, "phao": 8379, "Kiểm_soát": 8380, "Đô": 8381, "UAV": 8382, "TCN": 8383, "làm_bạn": 8384, "thoả": 8385, "Hòn_@@": 8386, "Chánh_án": 8387, "hung_thủ": 8388, "tâm_tư": 8389, "Trần_Hưng_Đạo": 8390, "Nam_Từ_Liêm": 8391, "Belarus": 8392, "mỹ_thuật": 8393, "khép_kín": 8394, "Tuyền": 8395, "8/3": 8396, "bón": 8397, "thanh_xuân": 8398, "trang_trải": 8399, "tuân": 8400, "ăn_ý": 8401, "Forbes": 8402, "Calisto": 8403, "101": 8404, "yêu_đương": 8405, "cửa_ngõ": 8406, "Tốt": 8407, "Cơn": 8408, "định_nghĩa": 8409, "dụng": 8410, "phân_cấp": 8411, "phòng_thí_nghiệm": 8412, "chia_rẽ": 8413, "nói_dối": 8414, "Je@@": 8415, "nước_cốt": 8416, "pho@@": 8417, "Shi@@": 8418, "B-@@": 8419, "Việt_Đức": 8420, "tay_nghề": 8421, "blog": 8422, "đứng_tên": 8423, "Tor@@": 8424, "Mosul": 8425, "chi_bộ": 8426, "khan_hiếm": 8427, "dư_thừa": 8428, "gân": 8429, "bung": 8430, "mến": 8431, "My_@@": 8432, "Tống_@@": 8433, "1965": 8434, "trả_đũa": 8435, "Pogba": 8436, "đất_đá": 8437, "Star@@": 8438, "GDĐT": 8439, "Young": 8440, "biên_soạn": 8441, "Sa": 8442, "TV@@": 8443, "Dao": 8444, "Thưa": 8445, "y-@@": 8446, "then_chốt": 8447, "pu@@": 8448, "hợp_lệ": 8449, "19,@@": 8450, "Nhì": 8451, "<": 8452, "dis@@": 8453, "di_truyền": 8454, "Sân_khấu": 8455, "La_Mã": 8456, "Cơ_hội": 8457, "chiếu_phim": 8458, "visa": 8459, "mã_số": 8460, "Hồ_sơ": 8461, "ót": 8462, "vay_mượn": 8463, "xuất_trình": 8464, "bóng_chuyền": 8465, "đồng_đều": 8466, "bơi_lội": 8467, "sc@@": 8468, "Nhật_Tân": 8469, "Chi_@@": 8470, "Phạm_Băng_Băng": 8471, "ăn_chơi": 8472, "HCĐ": 8473, "tốc": 8474, "est@@": 8475, "điểm_chuẩn": 8476, "nếm": 8477, "Chu": 8478, "CN@@": 8479, "xài": 8480, "Băng": 8481, "MI@@": 8482, "khoanh": 8483, "Sabeco": 8484, "NK": 8485, "dược_phẩm": 8486, "Lộ": 8487, "ar_@@": 8488, "Tý": 8489, "phái_đoàn": 8490, "con_nuôi": 8491, "chép": 8492, "tàn": 8493, "đồ_vật": 8494, "xịt": 8495, "Mã_@@": 8496, "Siêu_mẫu": 8497, "Toàn_cảnh": 8498, "dược_liệu": 8499, "Thu_Phương": 8500, "05@@": 8501, "lịch_sự": 8502, "ấu": 8503, "chung_thân": 8504, "Thế_chiến": 8505, "hành_hạ": 8506, "ass@@": 8507, "đầu_thú": 8508, "Thích_@@": 8509, "lẩu": 8510, "ide": 8511, "hoa_màu": 8512, "Du": 8513, "trăn": 8514, "tác_nghiệp": 8515, "gấp_rút": 8516, "Ân": 8517, "nảy": 8518, "21.@@": 8519, "fi@@": 8520, "dội": 8521, "phát_thanh": 8522, "mặt_tiền": 8523, "Gal@@": 8524, "dy": 8525, "bar@@": 8526, "ách_tắc": 8527, "Mậu_Tuất": 8528, "U22": 8529, "Võ_Văn_@@": 8530, "có_ích": 8531, "đích_thân": 8532, "giảm_sút": 8533, "tên_miền": 8534, "ere": 8535, "lược": 8536, "Ferrari": 8537, "sai_trái": 8538, "Hàn_@@": 8539, "ráo": 8540, "tiền_đề": 8541, "không_phận": 8542, "nhược_điểm": 8543, "ngập_úng": 8544, "cuồng": 8545, "27.@@": 8546, "A_@@": 8547, "phượt": 8548, "xiếc": 8549, "giận_dữ": 8550, "ngoại_lệ": 8551, "7,5": 8552, "nói_@@": 8553, "sóng_thần": 8554, "VNĐ": 8555, "Song_song": 8556, "trục_lợi": 8557, "sia": 8558, "phen": 8559, "Từ_Liêm": 8560, "đa_phương": 8561, "cướp_giật": 8562, "BCH": 8563, "cộng_sự": 8564, "Fi@@": 8565, "phim_ảnh": 8566, "if@@": 8567, "12/2016": 8568, "Bro@@": 8569, "ưu_tú": 8570, "thâm_hụt": 8571, "lập_luận": 8572, "gián_điệp": 8573, "đường_dẫn": 8574, "xấu_xí": 8575, "mòn": 8576, "Buôn_Ma_Thuột": 8577, "Madrid": 8578, "Vi": 8579, "St.": 8580, "tồn_đọng": 8581, "nghị_sỹ": 8582, "go": 8583, "băng_nhóm": 8584, "đài_truyền_hình": 8585, "lưu_diễn": 8586, "ens@@": 8587, "thẻ_vàng": 8588, "Châu_Thành": 8589, "bất_thành": 8590, "chống_đối": 8591, "E5": 8592, "B.Bình": 8593, "lây": 8594, "Lan@@": 8595, "G.": 8596, "nhịn": 8597, "sẻ": 8598, "30/4": 8599, "điện_lực": 8600, "ngoại_thành": 8601, "Tuyên": 8602, "20,@@": 8603, "6,5": 8604, "eno@@": 8605, "Trương_Hoà_Bình": 8606, "AP@@": 8607, "ys@@": 8608, "Đăng": 8609, "Idlib": 8610, "chay": 8611, "quy_phạm_pháp_luật": 8612, "hạm_đội": 8613, "BXH": 8614, "Hết": 8615, "Quan_@@": 8616, "đến_cùng": 8617, "úp": 8618, "CHDCND_Triều_Tiên": 8619, "1m@@": 8620, "báo_điện_tử": 8621, "Hor@@": 8622, "S-300": 8623, "cẩu": 8624, "bộc_bạch": 8625, "kết_cấu_hạ_tầng": 8626, "vaccine": 8627, "Manila": 8628, "vấn_nạn": 8629, "kiếp": 8630, "nhàm_chán": 8631, "thế_mà": 8632, "tổ_dân_phố": 8633, "suôn_sẻ": 8634, "hảo_tâm": 8635, "tối_qua": 8636, "Ter@@": 8637, "phần_trăm": 8638, "đơn_giản_hoá": 8639, "36@@": 8640, "Truyền": 8641, "mãnh_liệt": 8642, "nội_trú": 8643, "Trụ_sở": 8644, "ầm": 8645, "DC": 8646, "Tránh": 8647, "tàng_trữ": 8648, "1964": 8649, "Tri@@": 8650, "Nhất_@@": 8651, "thiệt": 8652, "đường_băng": 8653, "ense": 8654, "1/4": 8655, "TP@@": 8656, "kiểm_chứng": 8657, "liên_hoan": 8658, "BTV": 8659, "won": 8660, "Chắc": 8661, "nến": 8662, "luân_chuyển": 8663, "nhà_vườn": 8664, "biểu": 8665, "triều_đình": 8666, "sở_trường": 8667, "dai": 8668, "PR": 8669, "Trường_@@": 8670, "ys": 8671, "chọi": 8672, "Ay@@": 8673, "Giới_chức": 8674, "tiềm_lực": 8675, "do_thám": 8676, "cách_ly": 8677, "Nepal": 8678, "oxy": 8679, "truy_đuổi": 8680, "Bầu": 8681, "34@@": 8682, "Mus@@": 8683, "Phi_@@": 8684, "ai_nấy": 8685, "đánh_cá": 8686, "lập_nghiệp": 8687, "tạm_trú": 8688, "Tak@@": 8689, "11/2017": 8690, "chia_cắt": 8691, "tử_thi": 8692, "Vương_quốc": 8693, "Pep_Guardiola": 8694, "ươm": 8695, "hấp_thu": 8696, "tổng_công_ty": 8697, "Hướng_dẫn": 8698, "Dis@@": 8699, "ville": 8700, "Giữ": 8701, "ngậm_ngùi": 8702, "kín_đáo": 8703, "đề_kháng": 8704, "uk@@": 8705, "Ed@@": 8706, "hôi_thối": 8707, "bất_hạnh": 8708, "Thu_Trang": 8709, "kỷ_cương": 8710, "bèn": 8711, "đâu_đó": 8712, "hormone": 8713, "Cho_dù": 8714, "Vo@@": 8715, "108": 8716, "vũ_công": 8717, "Mel@@": 8718, "1962": 8719, "hội_trường": 8720, "kiểm_nghiệm": 8721, "bàn_thờ": 8722, "Dan@@": 8723, "R-@@": 8724, "sai_lệch": 8725, "Kan@@": 8726, "Phương_pháp": 8727, "tham_vấn": 8728, "vũ_lực": 8729, "châm": 8730, "Mất": 8731, "dẫn_chương_trình": 8732, "Kiểu": 8733, "bi_kịch": 8734, "sở_tại": 8735, "xứng": 8736, "Xử_lý": 8737, "gi": 8738, "ảng": 8739, "nghèo_khó": 8740, "Europa_League": 8741, "Phải_chăng": 8742, "bộ_ngành": 8743, "thanh_long": 8744, "D-@@": 8745, "chủ_thể": 8746, "đèn_đỏ": 8747, "tụi": 8748, "NDT": 8749, "giao_thừa": 8750, "Bến_xe": 8751, "thanh_thiếu_niên": 8752, "nghị_lực": 8753, "Bạn_đọc": 8754, "ry": 8755, "Serie_A": 8756, "cổ_vật": 8757, "thụ_lý": 8758, "Bạch_Đằng": 8759, "liệt_kê": 8760, "PVC": 8761, "án_mạng": 8762, "Bông": 8763, "Ger@@": 8764, "vành": 8765, "Đáp": 8766, "Festival": 8767, "phát_minh": 8768, "Liên_Hiệp_Quốc": 8769, "hết_lòng": 8770, "Trung_bình": 8771, "bật_mí": 8772, "như_thể": 8773, "hung_khí": 8774, "số_đo": 8775, "Trần_Phú": 8776, "KH@@": 8777, "Cap@@": 8778, "ê-@@": 8779, "cụm_từ": 8780, "_ch@@": 8781, "Cơ_quan_chức_năng": 8782, "như_ý": 8783, "Tài_xế": 8784, "sung_sướng": 8785, "trúng_thầu": 8786, "tin_vui": 8787, "Thuận_@@": 8788, "Paul@@": 8789, "ít_ỏi": 8790, "Lao": 8791, "nhìn_chung": 8792, "Cy@@": 8793, "Napoli": 8794, "ăng": 8795, "tắc_nghẽn": 8796, "Cam_Ranh": 8797, "Bon@@": 8798, "Ban@@": 8799, "nhiễu": 8800, "cầu_nguyện": 8801, "Brussels": 8802, "xáo_trộn": 8803, "khoán": 8804, "000": 8805, "Cha_mẹ": 8806, "carbon": 8807, "ia_@@": 8808, "bổ_ích": 8809, "Huawei": 8810, "Chuẩn_bị": 8811, "HOSE": 8812, "ách": 8813, "Er@@": 8814, "Thành_công": 8815, "trán": 8816, "CQĐT": 8817, "Hạ_@@": 8818, "đọ": 8819, "Lân": 8820, "kin": 8821, "Os@@": 8822, "giải_thể": 8823, "20-@@": 8824, "na@@": 8825, "Bernabeu": 8826, "Nhất_là": 8827, "Trở_lại": 8828, "lầu": 8829, "giáp_ranh": 8830, "Tây_Sơn": 8831, "sky": 8832, "Ả_Rập": 8833, "bế_mạc": 8834, "lớn_lao": 8835, "1,1": 8836, "Pas@@": 8837, "Phong_trào": 8838, "mo": 8839, "tương": 8840, "HA@@": 8841, "Hóc_Môn": 8842, "mAh": 8843, "NLĐO": 8844, "Bỏ": 8845, "lăng": 8846, "tẩy_chay": 8847, "linh_hồn": 8848, "Thuỳ_Dung": 8849, "Bảo_Anh": 8850, "mủ": 8851, "chán_nản": 8852, "2-2": 8853, "Quản_trị": 8854, "catwalk": 8855, "tan_vỡ": 8856, "Nam-@@": 8857, "cá_độ": 8858, "Dân_trí": 8859, "hiệp_ước": 8860, "dặn": 8861, "khử": 8862, "Eximbank": 8863, "Tăng_@@": 8864, "bình_phục": 8865, "nửa_đêm": 8866, "21@@": 8867, "Trịnh_Xuân_Thanh": 8868, "Lê_Minh_@@": 8869, "tự_vệ": 8870, "MINH": 8871, "Im@@": 8872, "Mặc": 8873, "Mad@@": 8874, "hướng_dẫn_viên": 8875, "Chương_Mỹ": 8876, "Cuộc_chiến": 8877, "199@@": 8878, "Ca_khúc": 8879, "dân_quân": 8880, "Phạm_Công_Danh": 8881, "làn_đường": 8882, "Chí": 8883, "ds": 8884, "anh_chị_em": 8885, "thẩm_vấn": 8886, "giấm": 8887, "DNNN": 8888, "70@@": 8889, "Đặng_Văn_@@": 8890, "ác_liệt": 8891, "máy_bay_trực_thăng": 8892, "lớn_nhỏ": 8893, "tuyên_án": 8894, "Hành_vi": 8895, "0-@@": 8896, "Thanh_Tùng": 8897, "ANH": 8898, "chọn_lọc": 8899, "Di_tích": 8900, "trông_chờ": 8901, "lum": 8902, "âm_đạo": 8903, "den": 8904, "y_tá": 8905, "lở": 8906, "Tốc_độ": 8907, "Lenovo": 8908, "tập_tin": 8909, "Kiệt": 8910, "đầu_quân": 8911, "Ngh@@": 8912, "dương_xỉ": 8913, "Đổi_mới": 8914, "ời": 8915, "Phương_án": 8916, "Cơ": 8917, "Video_@@": 8918, "Fu@@": 8919, "chuyên_sâu": 8920, "Một_vài": 8921, "Tự_do": 8922, "thương_tâm": 8923, "Sự_thật": 8924, "tra_tấn": 8925, "da_@@": 8926, "Mắt": 8927, "ger": 8928, "buýt": 8929, "Lumia": 8930, "Ước_tính": 8931, "anh_đào": 8932, "điều_phối": 8933, "Chinhphu.vn": 8934, "Trọng_tài": 8935, "Cannes": 8936, "bầu_không_khí": 8937, "240": 8938, "Khắc_@@": 8939, "tương_thích": 8940, "tai_biến": 8941, "lê": 8942, "bóp": 8943, "Sun@@": 8944, "Đội_trưởng": 8945, "thêu": 8946, "QĐ": 8947, "bối_rối": 8948, "Hiếu_@@": 8949, "đa_dạng_hoá": 8950, "Quân_sự": 8951, "3/2017": 8952, "lách": 8953, "đột_nhiên": 8954, "cal@@": 8955, "chăm_chút": 8956, "vọng": 8957, "gật": 8958, "truyền_thuyết": 8959, "Hoài_Đức": 8960, "Don@@": 8961, "lang": 8962, "US": 8963, "trốn_thuế": 8964, "mô-men": 8965, "E-@@": 8966, "nhà_xe": 8967, "đốm": 8968, "cờ_bạc": 8969, "West_Ham": 8970, "1963": 8971, "TC@@": 8972, "Huỳnh": 8973, "Th.": 8974, "mít": 8975, "tà": 8976, "1966": 8977, "Ấn": 8978, "ông_bầu": 8979, "Đá": 8980, "Thánh_@@": 8981, "berg": 8982, "rốn": 8983, "Đàn": 8984, "trọng_trách": 8985, "lột": 8986, "thâm_nhập": 8987, "ps": 8988, "TA@@": 8989, "World_@@": 8990, "bì": 8991, "tinh_dầu": 8992, "hưng_phấn": 8993, "biển_báo": 8994, "Quân_@@": 8995, "trích_dẫn": 8996, "45%": 8997, "Tưởng": 8998, "thăng": 8999, "cãi_vã": 9000, "bỏ_cuộc": 9001, "tươi_sáng": 9002, "rừng_phòng_hộ": 9003, "Pháp_Luật": 9004, "sáng_chế": 9005, "tình_nghi": 9006, "SM": 9007, "ý_đồ": 9008, "all": 9009, "bầy": 9010, "14%": 9011, "bằng_cấp": 9012, "rối": 9013, "tuyệt_vọng": 9014, "triệt_phá": 9015, "ff": 9016, "Tiến_Dũng": 9017, "toa": 9018, "Bangladesh": 9019, "nhân_công": 9020, "nhập_học": 9021, "oni@@": 9022, "ma_@@": 9023, "sàng_lọc": 9024, "Bre@@": 9025, "tác_nhân": 9026, "cụ_thể_hoá": 9027, "đầu_@@": 9028, "Đại_hội_đồng": 9029, "nội_các": 9030, "sĩ": 9031, "Chúa": 9032, "dân_dụng": 9033, "Phan_Thị_@@": 9034, "Gen@@": 9035, "xô_xát": 9036, "chen": 9037, "thông_lệ": 9038, "Camera": 9039, "Wil@@": 9040, "Thị_trấn": 9041, "K-@@": 9042, "Huân": 9043, "công_tố_viên": 9044, "ngất": 9045, "hôn_mê": 9046, "Nụ": 9047, "Thu_Thảo": 9048, "cư_xử": 9049, "iz@@": 9050, "thành_thị": 9051, "wa": 9052, "Ex@@": 9053, "ann@@": 9054, "nghiêm_minh": 9055, "pop": 9056, "24.@@": 9057, "chuyển_dịch": 9058, "nilon": 9059, "cao_nguyên": 9060, "Iceland": 9061, "hành_quân": 9062, "tẩm": 9063, "Chăm": 9064, "quýt": 9065, "chủ_quản": 9066, "SP@@": 9067, "Nguyễn_Tiến_@@": 9068, "phúc": 9069, "Bulgaria": 9070, "Thay_mặt": 9071, "lưu_vực": 9072, "Phan": 9073, "xa_hoa": 9074, "Dư_luận": 9075, "Br@@": 9076, "Ngọc_Linh": 9077, "dứt_khoát": 9078, "loét": 9079, "Thuỳ_Linh": 9080, "1.6@@": 9081, "men@@": 9082, "Sport": 9083, "nhà_vua": 9084, "Thời_tiết": 9085, "sân_khách": 9086, "tình_thương": 9087, "Nam_Em": 9088, "CO@@": 9089, "De_Gea": 9090, "té": 9091, "kích_cầu": 9092, "Người_mẫu": 9093, "Séc": 9094, "Đàm_@@": 9095, "nhà_@@": 9096, "Noo_Phước_Thịnh": 9097, "tán_thành": 9098, "thiên_hạ": 9099, "ven@@": 9100, "đắm": 9101, "Minh_Tú": 9102, "ADN": 9103, "bàn_ghế": 9104, "mỹ": 9105, "sinh_lý": 9106, "sinh_trưởng": 9107, "nhà_phát_triển": 9108, "thú_nhận": 9109, "chân_thực": 9110, "dịch_chuyển": 9111, "10/2017": 9112, "bộ_mặt": 9113, "tiếp_nối": 9114, "tur@@": 9115, "hoảng_sợ": 9116, "hiện_thực_hoá": 9117, "truyện_tranh": 9118, "Phú_Nhuận": 9119, "bạt": 9120, "Chung_@@": 9121, "nam_sinh": 9122, "từng_trải": 9123, "thông_tin_đại_chúng": 9124, "Lệ": 9125, "trùng_tu": 9126, "công_du": 9127, "cột_sống": 9128, "y_khoa": 9129, "xuồng": 9130, "Sy@@": 9131, "CPI": 9132, "an_tâm": 9133, "Rau": 9134, "đãi": 9135, "28.@@": 9136, "Por@@": 9137, "trước_tiên": 9138, "vỏn_vẹn": 9139, "đọng": 9140, "ấn_phẩm": 9141, "cer@@": 9142, "cày": 9143, "kinh_tế_thị_trường": 9144, "Ali@@": 9145, "Đại_lễ": 9146, "BQL": 9147, "Sevilla": 9148, "đặc_khu": 9149, "Ngân_sách": 9150, "văn_kiện": 9151, "bê": 9152, "Nghi_@@": 9153, "VNCB": 9154, "thổ_lộ": 9155, "nổi_loạn": 9156, "M.U.": 9157, "Lợi_dụng": 9158, "ane": 9159, "biến_cố": 9160, "tưng_bừng": 9161, "og@@": 9162, "CPTPP": 9163, "tt@@": 9164, "tản": 9165, "Dàn": 9166, "cay_đắng": 9167, "phương_diện": 9168, "cộng_tác": 9169, "tục": 9170, "thời_khắc": 9171, "phiêu_lưu": 9172, "Jackpot": 9173, "Mộc_Châu": 9174, "Yonhap": 9175, "đặt_cọc": 9176, "kỹ_càng": 9177, "lấp_lánh": 9178, "AR@@": 9179, "1946": 9180, "Rom@@": 9181, "The_Face": 9182, "135": 9183, "Agribank": 9184, "Inter_Milan": 9185, "chủng_tộc": 9186, "1.7@@": 9187, "3/2018": 9188, "Chinh": 9189, "neo_đậu": 9190, "chân_tay": 9191, "người_quản_lý": 9192, "Khám_phá": 9193, "Móng_Cái": 9194, "Di": 9195, "Bãi": 9196, "Air": 9197, "ala@@": 9198, "đồng_bọn": 9199, "Fe@@": 9200, "250.000": 9201, "ren": 9202, "Trị": 9203, "11%": 9204, "James": 9205, "quan_tài": 9206, "nhạc_cụ": 9207, "live": 9208, "Mãi": 9209, "Manchester_City": 9210, "xe_bọc_thép": 9211, "Co.": 9212, "Sydney": 9213, "adi@@": 9214, "Mis@@": 9215, "chuộc": 9216, "Bến_Thành": 9217, "phân_huỷ": 9218, "sa_sút": 9219, "truyền_đạt": 9220, "vượt_bậc": 9221, "Pra@@": 9222, "Lớp": 9223, "thần_thái": 9224, "nhi": 9225, "báu": 9226, "ary": 9227, "selfie": 9228, "Phương_Anh": 9229, "trại_giam": 9230, "On@@": 9231, "Nguy_cơ": 9232, "nợ_nần": 9233, "ẩu": 9234, "Thổ": 9235, "gáy": 9236, "G.@@": 9237, "Yahoo": 9238, "26.@@": 9239, "sắc_sảo": 9240, "Pol@@": 9241, "mũi_nhọn": 9242, "dẫn_chứng": 9243, "ngửa": 9244, "Lệ_@@": 9245, "tơ": 9246, "Sen": 9247, "ấp_ủ": 9248, "sởi": 9249, "Conte": 9250, "ly_dị": 9251, "IT": 9252, "Rồng": 9253, "Thành_Long": 9254, "Danh_pháp": 9255, "choáng_váng": 9256, "tiền_án": 9257, "SC@@": 9258, "Duterte": 9259, "quế": 9260, "sus": 9261, "thứ_bảy": 9262, "Bush": 9263, "Kênh": 9264, "Ibrahimovic": 9265, "Kính": 9266, "nhai": 9267, "Abe": 9268, "sọc": 9269, "lộn": 9270, "đường_nét": 9271, "gửi_gắm": 9272, "thời_cơ": 9273, "1930": 9274, "nguyên_tử": 9275, "Cuộc_đời": 9276, "khôn_ngoan": 9277, "com": 9278, "hoa_văn": 9279, "ola": 9280, "18%": 9281, "sen@@": 9282, "2,3": 9283, "Thuốc": 9284, "CP@@": 9285, "gọt": 9286, "ngôn": 9287, "Uzbekistan": 9288, "giả_thuyết": 9289, "gánh_chịu": 9290, "cafe": 9291, "kWh": 9292, "ây": 9293, "TM": 9294, "tớ": 9295, "vũ_đạo": 9296, "Newcastle": 9297, "Lệ_Quyên": 9298, "ath@@": 9299, "Trịnh_Đình_Dũng": 9300, "jeans": 9301, "GS.TS": 9302, "két": 9303, "Lê_Quang_@@": 9304, "Việt_Anh": 9305, "ST": 9306, "mãn": 9307, "15-@@": 9308, "Á-Thái": 9309, "bào": 9310, "đối_chiếu": 9311, "Thuỵ_Sỹ": 9312, "kẽm": 9313, "nội_tạng": 9314, "Ít_nhất": 9315, "ngắn_gọn": 9316, "ima": 9317, "sao_chép": 9318, "Romania": 9319, "thủ_khoa": 9320, "Nghĩ": 9321, "đại_tá": 9322, "Nguyễn_Tấn_Dũng": 9323, "sung": 9324, "giải_độc": 9325, "Đế": 9326, "Hoan": 9327, "view": 9328, "khởi_xướng": 9329, "chuyển_thể": 9330, "dân_chúng": 9331, "Hoàng_đế": 9332, "_N@@": 9333, "đại_lộ": 9334, "Shinzo_Abe": 9335, "khẩn": 9336, "chứa_đựng": 9337, "ACB": 9338, "quặng": 9339, "ụ": 9340, "phu": 9341, "tất_bật": 9342, "Lục_@@": 9343, "côn_đồ": 9344, "điều_dưỡng": 9345, "11/2016": 9346, "thâu_tóm": 9347, "Ý_tưởng": 9348, "Tứ": 9349, "kí": 9350, "Viết_@@": 9351, "nòng_cốt": 9352, "cực_kì": 9353, "lộn_xộn": 9354, "ám": 9355, "CO": 9356, "Minh_Anh": 9357, "nhân_khẩu": 9358, "bóng_rổ": 9359, "chài": 9360, "thời_sự": 9361, "bộ_cánh": 9362, "2,2": 9363, "Tầm": 9364, "ana_@@": 9365, "The@@": 9366, "è@@": 9367, "Ye@@": 9368, "102": 9369, "ngư_lôi": 9370, "công_nghiệp_hoá": 9371, "ưng_ý": 9372, "luỹ": 9373, "Diện_tích": 9374, "co_@@": 9375, "uốn": 9376, "tay_trái": 9377, "giải_tán": 9378, "Zidane": 9379, "ng_th@@": 9380, "sub@@": 9381, "Hol@@": 9382, "nhân_tài": 9383, "cách_chức": 9384, "Thần_@@": 9385, "Diệu_@@": 9386, "Mag@@": 9387, "ngói": 9388, "ưng": 9389, "ngây_thơ": 9390, "thứ_hạng": 9391, "Le_@@": 9392, "nhiệm": 9393, "nhổ": 9394, "Vũ_Đức_Đam": 9395, "Dĩ_nhiên": 9396, "tạm_ứng": 9397, "ks": 9398, "QG": 9399, "Tà_@@": 9400, "tập_quán": 9401, "đường_dây_nóng": 9402, "David_@@": 9403, "Ap@@": 9404, "shop": 9405, "quái_vật": 9406, "bứt_phá": 9407, "103": 9408, "Tranh": 9409, "đăng_kiểm": 9410, "rãnh": 9411, "ài": 9412, "Ghi_nhận": 9413, "tố_giác": 9414, "đưa_đón": 9415, "Ji@@": 9416, "nhân_dân_tệ": 9417, "trong_lành": 9418, "hạn_hán": 9419, "dĩ_nhiên": 9420, "ét": 9421, "Nguyễn_Đức_Chung": 9422, "Trịnh": 9423, "sedan": 9424, "Gh@@": 9425, "thi_cử": 9426, "Đỗ_Văn_@@": 9427, "ii": 9428, "Merkel": 9429, "đổ_nát": 9430, "Một_khi": 9431, "tuần_lễ": 9432, "VIP": 9433, "Giám_sát": 9434, "Ebola": 9435, "nhất_quán": 9436, "Tổng_cộng": 9437, "Việt_Hương": 9438, "yoga": 9439, "Hành": 9440, "VI": 9441, "lập_trình": 9442, "con_@@": 9443, "sư_đoàn": 9444, "diều": 9445, "ê@@": 9446, "sầu_riêng": 9447, "aya": 9448, "Album": 9449, "thân_cận": 9450, "Lan_@@": 9451, "giết_hại": 9452, "Đài_Truyền_hình": 9453, "nước_tiểu": 9454, "2/9": 9455, "ề": 9456, "Super@@": 9457, "chế_tác": 9458, "vô_hiệu_hoá": 9459, "MH370": 9460, "Mirror": 9461, "uy_hiếp": 9462, "Es@@": 9463, "650": 9464, "FBNV": 9465, "Lô": 9466, "nhức": 9467, "bất_an": 9468, "Yến_@@": 9469, "Bri@@": 9470, "Dự": 9471, "ria": 9472, "550": 9473, "07@@": 9474, "Tuổi": 9475, "Lên": 9476, "vòng_quanh": 9477, "cabin": 9478, "ơ@@": 9479, "Hiện_tượng": 9480, "hy@@": 9481, "quản_lý_Nhà_nước": 9482, "Giáp": 9483, "ation": 9484, "ói": 9485, "Chung_kết": 9486, "tar@@": 9487, "thiết_giáp": 9488, "del": 9489, "1.8@@": 9490, "tranh_giành": 9491, "loay_hoay": 9492, "thỏ": 9493, "Del@@": 9494, "rộ": 9495, "rock": 9496, "Cảnh_@@": 9497, "nghi_án": 9498, "trấn_an": 9499, "Hải_Châu": 9500, "Awards": 9501, "Trại": 9502, "Hà_Anh": 9503, "chắc_hẳn": 9504, "ting": 9505, "buồn_bã": 9506, "điều_chuyển": 9507, "vôi": 9508, "trưởng_đoàn": 9509, "thảm_sát": 9510, "Thuỷ_sản": 9511, "giỏ": 9512, "thầm": 9513, "Nguyễn_Du": 9514, "ngắt": 9515, "13%": 9516, "Email": 9517, "sữa_tươi": 9518, "Cúp_@@": 9519, "ĐKVĐ": 9520, "Vân_Đồn": 9521, "ish@@": 9522, "VnMedia": 9523, "kiên_cường": 9524, "amp@@": 9525, "gia_cố": 9526, "Ja@@": 9527, "Hel@@": 9528, "Ngọc_Hân": 9529, "pes": 9530, "py@@": 9531, "Martin_@@": 9532, "át": 9533, "minh": 9534, "pan@@": 9535, "Panama": 9536, "chật": 9537, "ron@@": 9538, "RE@@": 9539, "ine@@": 9540, "tái_diễn": 9541, "Ma_@@": 9542, "Hoàng_Trung_Hải": 9543, "phủ_sóng": 9544, "ling": 9545, "bản_nhạc": 9546, "thực_dân": 9547, "chỗ_đứng": 9548, "P-@@": 9549, "cây_cối": 9550, "Doanh_nhân": 9551, "HC@@": 9552, "u-@@": 9553, "Bolero": 9554, "táo_bón": 9555, "ghế_ngồi": 9556, "buồn_nôn": 9557, "xây_lắp": 9558, "thăng_trầm": 9559, "vượng": 9560, "Mỹ_thuật": 9561, "bầm": 9562, "Ý.": 9563, "spa": 9564, "Tur@@": 9565, "65%": 9566, "áp_thuế": 9567, "ore": 9568, "vệ": 9569, "cọ": 9570, "Nhà_xuất_bản": 9571, "phi_hành_đoàn": 9572, "thực_tập": 9573, "Fo@@": 9574, "ê-kíp": 9575, "85%": 9576, "Hawaii": 9577, "Cá@@": 9578, "lùn": 9579, "ăn_cắp": 9580, "TBKTSG": 9581, "chiến_hạm": 9582, "q": 9583, "áng": 9584, "Dần": 9585, "tic": 9586, "Pháo_thủ": 9587, "đèn_pha": 9588, "giáng": 9589, "Hương_Tràm": 9590, "Ky@@": 9591, "Khmer": 9592, "600.000": 9593, "CE@@": 9594, "ek@@": 9595, "ghi_điểm": 9596, "ico": 9597, "đỉnh_điểm": 9598, "hi": 9599, "Ô": 9600, "khoẻ_khoắn": 9601, "ùn": 9602, "xu@@": 9603, "1.300": 9604, "nổi_trội": 9605, "Ngoại_thương": 9606, "thuốc_trừ_sâu": 9607, "tái_phát": 9608, "tham_chiến": 9609, "Công_giáo": 9610, "ngon_miệng": 9611, "tự_lập": 9612, "Tower": 9613, "Mari@@": 9614, "The_Blues": 9615, "bưu_điện": 9616, "113": 9617, "nghẹn_ngào": 9618, "đặc_quyền": 9619, "Giải_phóng": 9620, "Màn_hình": 9621, "hay_biết": 9622, "Hữu_nghị": 9623, "Đảng_Cộng_sản_Việt_Nam": 9624, "Nhà_thờ": 9625, "cải_tổ": 9626, "lười": 9627, "đu_đủ": 9628, "Thiếu_tá": 9629, "Ry@@": 9630, "chật_vật": 9631, "Nou_Camp": 9632, "Power": 9633, "hoá_trang": 9634, ".000.000": 9635, "Chế_độ": 9636, "Bộ_Chỉ_huy": 9637, "oà": 9638, "Viện_Kiểm_sát": 9639, "Bundesliga": 9640, "né_tránh": 9641, "niên": 9642, "ja": 9643, "29.@@": 9644, "lắng": 9645, "Sim@@": 9646, "4/2017": 9647, "Nhận_định": 9648, "một_mặt": 9649, "Thái_tử": 9650, "ăn_học": 9651, "phải_chi": 9652, "sưởi": 9653, "Leicester": 9654, "Su-30": 9655, "6-7": 9656, "dì": 9657, "Mercedes-Benz": 9658, "Khoảnh_khắc": 9659, "Thu_Thuỷ": 9660, "chửi_bới": 9661, "tinh_bột": 9662, "Mark_@@": 9663, "17%": 9664, "Ara@@": 9665, "tinh_giản": 9666, "xuôi": 9667, "2,4": 9668, "30.@@": 9669, "20/11": 9670, "Nhà_đầu_tư": 9671, "tẩu_thoát": 9672, "rạn": 9673, "Yo@@": 9674, "Chợ_Rẫy": 9675, "tự_quản": 9676, "đàng_hoàng": 9677, "cảm_thông": 9678, "are": 9679, "ngắn_ngủi": 9680, "SGGP": 9681, "Thắm": 9682, "Erebidae": 9683, "marketing": 9684, "NQ": 9685, "Doãn_@@": 9686, "TGĐ": 9687, "san_lấp": 9688, "đai": 9689, "98%": 9690, "ons": 9691, "Quốc_khánh": 9692, "thứ_sáu": 9693, "Tiếng_nói": 9694, "thờ_ơ": 9695, "ấm_cúng": 9696, "bừa_bãi": 9697, "tam": 9698, "Hot": 9699, "Lạc_@@": 9700, "qua_mặt": 9701, "GM": 9702, "báo_hiệu": 9703, "Quang_Minh": 9704, "Fre@@": 9705, "Giáo_hội": 9706, "phận": 9707, "rực": 9708, "Ngô": 9709, "Xác_định": 9710, "Giáo_viên": 9711, "0.@@": 9712, "CR7": 9713, "rượu_vang": 9714, "thầy_thuốc": 9715, "Dor@@": 9716, "Sel@@": 9717, "tần_số": 9718, "king": 9719, "xuất_viện": 9720, "qui_định": 9721, "ya_@@": 9722, "Hal@@": 9723, "Địa_chỉ": 9724, "PH@@": 9725, "mẫu_mã": 9726, "tuần_hoàn": 9727, "nhà_xưởng": 9728, "Cây_@@": 9729, "ào": 9730, "Ga@@": 9731, "Vân_Anh": 9732, "nguy": 9733, "đáp_án": 9734, "cách_mạng_công_nghiệp": 9735, "Dung_Quất": 9736, "Trâm": 9737, "vô_vàn": 9738, "NS@@": 9739, "hiến_pháp": 9740, "Phú_Mỹ": 9741, "thị_phi": 9742, "khoa_học_kỹ_thuật": 9743, "Bánh_@@": 9744, "_E@@": 9745, "bục": 9746, "Liên_hoan_phim": 9747, "Inter@@": 9748, "ồ": 9749, "chat": 9750, "Home": 9751, "Văn_học": 9752, "1-3": 9753, "Kỷ_niệm": 9754, "Thánh": 9755, "yên_tĩnh": 9756, "công_chứng": 9757, "ire": 9758, "Southampton": 9759, "anus": 9760, "Đề": 9761, "X.": 9762, "ắng": 9763, "nô_lệ": 9764, "nấy": 9765, "Sử": 9766, "18-@@": 9767, "har@@": 9768, "cạo": 9769, "man_@@": 9770, "một_chiều": 9771, "giữ_chân": 9772, "neo": 9773, "bong_bóng": 9774, "nội_đô": 9775, "Thoa": 9776, "Quế": 9777, "thành_phẩm": 9778, "bọt": 9779, "_Mo@@": 9780, "De_@@": 9781, "khiếu_kiện": 9782, "Danh_@@": 9783, "320": 9784, "ze@@": 9785, "trũng": 9786, "tận_tình": 9787, "Mở": 9788, "SE": 9789, "kali": 9790, "mận": 9791, "EPA": 9792, "Bưởi": 9793, "tuyệt_chủng": 9794, "Angela_Phương_Trinh": 9795, "am_hiểu": 9796, "nhúng": 9797, "KHCN": 9798, "Nguyễn_Thành_@@": 9799, "Thật_ra": 9800, "sông_nước": 9801, "BP": 9802, "1/2017": 9803, "trung_chuyển": 9804, "ton@@": 9805, "Ari@@": 9806, "sch@@": 9807, "fanpage": 9808, "dây_điện": 9809, "well": 9810, "vòi": 9811, "vung": 9812, "hận": 9813, "George_@@": 9814, "hải_ngoại": 9815, "kĩ_thuật": 9816, "Đại_uý": 9817, "phức_hợp": 9818, "tin_học": 9819, "tiền_sử": 9820, "Địa_điểm": 9821, "nhân_ái": 9822, "resort": 9823, "I-@@": 9824, "thân_quen": 9825, "New_York_Times": 9826, "I.": 9827, "bỗng_nhiên": 9828, "Luôn": 9829, "Xuân_Bắc": 9830, "23,@@": 9831, "May@@": 9832, "lươn": 9833, "phụ_trợ": 9834, "c_th@@": 9835, "_Le@@": 9836, "GD@@": 9837, "William_@@": 9838, "Nhi_đồng": 9839, "ris@@": 9840, "Đỗ_Thị_@@": 9841, "ght": 9842, "Nhà_Bè": 9843, "thu_xếp": 9844, "Ánh_Viên": 9845, "pa@@": 9846, "đại_chúng": 9847, "TTHC": 9848, "Giáo_hoàng": 9849, "độ_chính_xác": 9850, "Nguyễn_Công_@@": 9851, "gym": 9852, "Công_nhân": 9853, "Việc_làm": 9854, "môtô": 9855, "anh_@@": 9856, "16%": 9857, "ö@@": 9858, "1961": 9859, "tàu_hoả": 9860, "thâm_niên": 9861, "cầu_@@": 9862, "jo@@": 9863, "cằm": 9864, "Thư_ký": 9865, "cáo": 9866, "Diệp_@@": 9867, "bánh_@@": 9868, "àng": 9869, "Pre@@": 9870, "0-0": 9871, "phúc_lợi": 9872, "Trần_Đình_@@": 9873, "tàu_điện_ngầm": 9874, "Đặng_Thị_@@": 9875, "lẽ_ra": 9876, "lồng_ghép": 9877, "1958": 9878, "trấn_áp": 9879, "nấu_nướng": 9880, "Wales": 9881, "VP@@": 9882, "cầu_cứu": 9883, "tự_giác": 9884, "ela": 9885, "tay_lái": 9886, "người_hùng": 9887, "SA": 9888, "mix": 9889, "ero": 9890, "net": 9891, "kiện_toàn": 9892, "_Mar@@": 9893, "đổ_xô": 9894, "Nhà_trường": 9895, "mor@@": 9896, "ban_công": 9897, "thám_hiểm": 9898, "ME@@": 9899, "đồng_hương": 9900, "dung": 9901, "lôi_cuốn": 9902, "hoài": 9903, "Có_vẻ": 9904, "chỉnh_trang": 9905, "bất_tỉnh": 9906, "trói": 9907, "ey@@": 9908, "chê_bai": 9909, "ngổn_ngang": 9910, "Geneva": 9911, "biểu_cảm": 9912, "Harvard": 9913, "Đài_truyền_hình": 9914, "piano": 9915, "Cấm": 9916, "ám_chỉ": 9917, "kỵ": 9918, "Gor@@": 9919, "Đinh_Dậu": 9920, "khẩu_trang": 9921, "xi": 9922, "90.000": 9923, "dâm": 9924, "bro@@": 9925, "sả": 9926, "trang_trọng": 9927, "Đồng_Tâm": 9928, "xung": 9929, "Tal@@": 9930, "Nguyễn_Duy_@@": 9931, "Vi_@@": 9932, "Thiện_@@": 9933, "nhả": 9934, "OPEC": 9935, "Stamford_Bridge": 9936, "Hậu_vệ": 9937, "thảo_dược": 9938, "Thìn": 9939, "lớn_mạnh": 9940, "Ir@@": 9941, "1959": 9942, "Ban_chấp_hành": 9943, "nghịch": 9944, "Ngắm": 9945, "Hiểu": 9946, "Alibaba": 9947, "Kam@@": 9948, "QĐ-@@": 9949, "tụ": 9950, "Tập_trung": 9951, "tờ_trình": 9952, "Ecuador": 9953, "5/2017": 9954, "VietinBank": 9955, "Đông_Âu": 9956, "an-@@": 9957, "Thạc_sĩ": 9958, "9/2017": 9959, "2.0@@": 9960, "loài_người": 9961, "con_trẻ": 9962, "hoang_sơ": 9963, "Tầng": 9964, "n.@@": 9965, "Thủ_môn": 9966, "xá": 9967, "Thi_@@": 9968, "lưu_động": 9969, "dục": 9970, "Char@@": 9971, "Phủ": 9972, "định_dạng": 9973, "Sir_Alex": 9974, "MA": 9975, "Đằng": 9976, "Emirates": 9977, "binh_sỹ": 9978, "nia": 9979, "Biên": 9980, "loãng": 9981, "chuyển_tiếp": 9982, "xấu_số": 9983, "xã_hội_chủ_nghĩa": 9984, "dương_vật": 9985, "99@@": 9986, "kỷ_nguyên": 9987, "vu@@": 9988, "Đề_xuất": 9989, "Sữa": 9990, "Khuê": 9991, "ı@@": 9992, "Vật_lý": 9993, "rạn_nứt": 9994, "phim_hoạt_hình": 9995, "Sc@@": 9996, "Bảo_tồn": 9997, "6/2017": 9998, "Tiêu_@@": 9999, "1/2018": 10000, "Hà_thành": 10001, "20h": 10002, "tổng_đài": 10003, "tiểu_đoàn": 10004, "linh_thiêng": 10005, "vòng_tròn": 10006, "Bước_đầu": 10007, "8/2017": 10008, "vô_tội": 10009, "Vũ_Quang": 10010, "cuồng_nhiệt": 10011, "l_@@": 10012, "@": 10013, "Kuala_Lumpur": 10014, "trỗi": 10015, "ối": 10016, "danh_thủ": 10017, "Mầm_non": 10018, "Cố_ý": 10019, "khoai_lang": 10020, "ford": 10021, "thương_nhân": 10022, "A1": 10023, "phát_xít": 10024, "Chính_@@": 10025, "thân_thể": 10026, "tang_lễ": 10027, "ly_@@": 10028, "Nam@@": 10029, "por@@": 10030, "SC": 10031, "ade": 10032, "hữu_hạn": 10033, "Văn_Miếu": 10034, "quân_@@": 10035, "3.500": 10036, "Arab": 10037, "IC@@": 10038, "Open": 10039, "Lin@@": 10040, "nhảy_múa": 10041, "lam": 10042, "Ci@@": 10043, "Động_cơ": 10044, "đoàn_tụ": 10045, "Hiến": 10046, "Na_@@": 10047, "Kazakhstan": 10048, "tươi_tắn": 10049, "Đơn": 10050, "vật_lộn": 10051, "iên": 10052, "Brunei": 10053, "tai_tiếng": 10054, "dị_tật": 10055, "phê_phán": 10056, "cover": 10057, "Lệnh": 10058, "Airbus": 10059, "đường_@@": 10060, "3-2": 10061, "2016-2020": 10062, "thông_quan": 10063, "Phạm_Văn_Đồng": 10064, "Vinh_@@": 10065, "phụ_gia": 10066, "boy": 10067, "Đường_@@": 10068, "nhóc": 10069, "nước_@@": 10070, "phi_cơ": 10071, "Lối": 10072, "ạch": 10073, "24,@@": 10074, "bit": 10075, "cấp_thiết": 10076, "35.000": 10077, "mus": 10078, "_c@@": 10079, "Thống": 10080, "ye@@": 10081, "thuật_ngữ": 10082, "thước": 10083, "chúng_em": 10084, "Py@@": 10085, "E.": 10086, "dương_tính": 10087, "365": 10088, "ty_@@": 10089, "str@@": 10090, "ster": 10091, "ngập_tràn": 10092, "wi@@": 10093, "Gây": 10094, "LCD": 10095, "ị": 10096, "Thành_tích": 10097, "Nhu_cầu": 10098, "liều_lĩnh": 10099, "tua": 10100, "Vườn_quốc_gia": 10101, "20/10": 10102, "Đinh_Văn_@@": 10103, "vui_lòng": 10104, "Đồng_Văn": 10105, "chích": 10106, "Chạy": 10107, "nes@@": 10108, "cao_@@": 10109, "quốc_dân": 10110, "Hương_Khê": 10111, "02@@": 10112, "hay_là": 10113, "1940": 10114, "dải_phân_cách": 10115, "giao_ban": 10116, "cung_điện": 10117, "Tuyết_@@": 10118, "công_ăn_việc_làm": 10119, "gương_mẫu": 10120, "Bá@@": 10121, "Bánh": 10122, "cứu_chữa": 10123, "ant": 10124, "gắng": 10125, "Bos@@": 10126, "du_học_sinh": 10127, "PPP": 10128, "bã": 10129, "bổ_dưỡng": 10130, "bản_năng": 10131, "ve_@@": 10132, "cưỡi": 10133, "Ấy": 10134, "mịn_màng": 10135, "Thức": 10136, "Dịp": 10137, "áp_thấp": 10138, "hoà_hợp": 10139, "New_@@": 10140, "33@@": 10141, "Park_@@": 10142, "ì@@": 10143, "NSNN": 10144, "Mi": 10145, "ing_@@": 10146, "hiệu_năng": 10147, "Ấn_Độ_Dương": 10148, "bố_con": 10149, "Sân": 10150, "VH-TT": 10151, "mỏi": 10152, "Đàm": 10153, "bền_bỉ": 10154, "sàn_diễn": 10155, "R.@@": 10156, "đôla": 10157, "Nông_thôn": 10158, "Cai_Lậy": 10159, "Trần_Quang_@@": 10160, "Poly@@": 10161, "chôn_cất": 10162, "ường": 10163, "vin@@": 10164, "Minh_Đức": 10165, "Thôn": 10166, "vài_ba": 10167, "trailer": 10168, "run": 10169, "ula": 10170, "Lĩnh": 10171, "yêu_sách": 10172, "22,@@": 10173, "gập": 10174, "IC": 10175, "vô_hình": 10176, "lis": 10177, "5-6": 10178, "Type": 10179, "Đa_@@": 10180, "ie": 10181, "Bán": 10182, "cựu_chiến_binh": 10183, "bạch": 10184, "xen": 10185, "Ngô_Văn_@@": 10186, "nguyên_bản": 10187, "núi_rừng": 10188, "nan": 10189, "Văn_Toàn": 10190, "art": 10191, "ev@@": 10192, "thường_kỳ": 10193, "cắp": 10194, "AT": 10195, "giám_đốc_điều_hành": 10196, "10/2016": 10197, "Phát_ngôn_viên": 10198, "con_bé": 10199, "ệ": 10200, "Sky@@": 10201, "sách_vở": 10202, "kỳ_cựu": 10203, "Jakarta": 10204, "Angela_Merkel": 10205, "tê_liệt": 10206, "tôn_tạo": 10207, "3-5": 10208, "sói": 10209, "ưu": 10210, "Van_Persie": 10211, "tuỳ_tiện": 10212, "thơ_mộng": 10213, "idi@@": 10214, "mau": 10215, "Thẩm_phán": 10216, "công_nhân_viên": 10217, "đo_lường": 10218, "ez": 10219, "tư_thục": 10220, "bất_hợp_lý": 10221, "rắc": 10222, "Tú_@@": 10223, "nước_lớn": 10224, "Mekong": 10225, "tâm_điểm": 10226, "Mộc": 10227, "atus": 10228, "tre@@": 10229, "đo_đạc": 10230, "Đại_Tây_Dương": 10231, "IM@@": 10232, "cau": 10233, "ze": 10234, "nội_soi": 10235, "Di_@@": 10236, "Ty@@": 10237, "Sav@@": 10238, "yc@@": 10239, "Than_Quảng_Ninh": 10240, "Xương": 10241, "tru@@": 10242, "9h": 10243, "vô_sinh": 10244, "25-@@": 10245, "_d@@": 10246, "2022": 10247, "25.@@": 10248, "roi": 10249, "Suối_@@": 10250, "Tống": 10251, "ce_@@": 10252, "Số_liệu": 10253, "bán_trú": 10254, "28,@@": 10255, "phân_tử": 10256, "nhập_ngũ": 10257, "Làm_sao": 10258, "Phạm_Ngọc_@@": 10259, "đăng_nhập": 10260, "You@@": 10261, "đôi_lúc": 10262, "way": 10263, "Baltic": 10264, "sắc_lệnh": 10265, "ekip": 10266, "giống_hệt": 10267, "nở_rộ": 10268, "đường_đua": 10269, "128": 10270, "mặc_định": 10271, "mộc_mạc": 10272, "hình_như": 10273, "Hải_Vân": 10274, "cưỡng_hiếp": 10275, "cai_trị": 10276, "Lăng": 10277, "dạ_hội": 10278, "đạo_luật": 10279, "9/2018": 10280, "UB@@": 10281, "sinh_mạng": 10282, "tổng_@@": 10283, "IP": 10284, "1/201@@": 10285, "tàu_bay": 10286, "MS": 10287, "Ngữ_văn": 10288, "Huấn_luyện_viên": 10289, "230": 10290, "26,@@": 10291, "mênh_mông": 10292, "GHz": 10293, "tí": 10294, "ei": 10295, "cạn_kiệt": 10296, "sát_sao": 10297, "tỉ_phú": 10298, "tablet": 10299, "Ea_@@": 10300, "190": 10301, "thất_thường": 10302, "Hắn": 10303, "bắt_chước": 10304, "giỗ": 10305, "nhất_quyết": 10306, "04@@": 10307, "Gre@@": 10308, "Nhạc": 10309, "khét_tiếng": 10310, "King": 10311, "đi_sâu": 10312, "100@@": 10313, "Sanchez": 10314, "Son@@": 10315, "Sen@@": 10316, "hải": 10317, "GiadinhNet": 10318, "M-TP": 10319, "kinh_khủng": 10320, "Trân": 10321, "dong": 10322, "Kor@@": 10323, "xe_cộ": 10324, "Thanh_Thảo": 10325, "vuốt": 10326, "trai_trẻ": 10327, "Hoàng_Yến": 10328, "Van_@@": 10329, "sơ_kết": 10330, "5/2018": 10331, "đơn_thân": 10332, "biên_kịch": 10333, "Gro@@": 10334, "Thành_Công": 10335, "hào": 10336, "Thu_Hà": 10337, "khoáng": 10338, "tic@@": 10339, "nội_lực": 10340, "kẽ": 10341, "Nhà_lãnh_đạo": 10342, "rát": 10343, "Bồ": 10344, "Juve": 10345, "danh_nghĩa": 10346, "David": 10347, "Smith": 10348, "Út": 10349, "Nậm_@@": 10350, "SCIC": 10351, "Tan@@": 10352, "Shar@@": 10353, "SO@@": 10354, "Cát_@@": 10355, "Vành_đai": 10356, "7/2018": 10357, "Ngoại_ngữ": 10358, "quý_báu": 10359, "mớ": 10360, "Mường_@@": 10361, "lừa_dối": 10362, "phát_điện": 10363, "xà_phòng": 10364, "Phương_Thảo": 10365, "99%": 10366, "rằm": 10367, "rèn": 10368, "khác_nào": 10369, "biến_hoá": 10370, "Tam@@": 10371, "KSND": 10372, "TB": 10373, "than_thở": 10374, "thiện_chí": 10375, "nhà_xuất_bản": 10376, "trọng_tải": 10377, "tầm_cỡ": 10378, "thuốc_nổ": 10379, "Tom_@@": 10380, "Telegraph": 10381, "Trương": 10382, "bộ_nhớ_trong": 10383, "pho": 10384, "pháo_binh": 10385, "0-1": 10386, "dụ_dỗ": 10387, "bị_động": 10388, "bánh_kẹo": 10389, "Thu@@": 10390, "khoét": 10391, "derby": 10392, "Phương_Thanh": 10393, "ứng_cứu": 10394, "Hạnh_@@": 10395, "IS@@": 10396, "một_triệu": 10397, "Bí_quyết": 10398, "súng_máy": 10399, "ngoại_hối": 10400, "Bashar": 10401, "at_@@": 10402, "mong_mỏi": 10403, "Thu_nhập": 10404, "phổ_cập": 10405, "Diệp": 10406, "hải_đảo": 10407, "per": 10408, "hạ_lưu": 10409, "lừng_danh": 10410, "United": 10411, "nhanh_nhẹn": 10412, "George": 10413, "hùng_vĩ": 10414, "55@@": 10415, "Sunderland": 10416, "thiêng": 10417, "ngũ_cốc": 10418, "cao_ốc": 10419, "bảo_thủ": 10420, "48@@": 10421, "25,@@": 10422, "ila": 10423, "đồ_sộ": 10424, "trưng_cầu_dân_ý": 10425, "SX": 10426, "ice": 10427, "nồng_nhiệt": 10428, "Snapdragon": 10429, "trấn": 10430, "10/2018": 10431, "et_@@": 10432, "XIII": 10433, "ANTT": 10434, "Diễn_Châu": 10435, "Tàu_ngầm": 10436, "Viết": 10437, "VAT": 10438, "tình_tứ": 10439, "â@@": 10440, "số_hoá": 10441, "chứng_bệnh": 10442, "tinh_hoa": 10443, "Phương_Nga": 10444, "dang_dở": 10445, "đô_thị_hoá": 10446, "Ze@@": 10447, "j": 10448, "dậy_thì": 10449, "Ô_tô": 10450, "thun": 10451, "Tổ_hợp": 10452, "súng_trường": 10453, "Quốc_Oai": 10454, "4/2018": 10455, "rin@@": 10456, "sát_cánh": 10457, "nang": 10458, "Sự_cố": 10459, "nh-@@": 10460, "trắng_tay": 10461, "Đông_Ukraine": 10462, "Rio": 10463, "Rạng": 10464, "Torres": 10465, "vui_nhộn": 10466, "SVĐ": 10467, "FTA": 10468, "ban@@": 10469, "Con_người": 10470, "Fed": 10471, "Chín": 10472, "und@@": 10473, "Thơm": 10474, "Note": 10475, "Địa_lý": 10476, "ký_hiệu": 10477, "Park_Hang_Seo": 10478, "Đẩy_mạnh": 10479, "võ_sư": 10480, "hệ_quả": 10481, "tò_vò": 10482, "thương_yêu": 10483, "Hạng": 10484, "đẹp_đẽ": 10485, "chồng_chéo": 10486, "ngừa": 10487, "cản_phá": 10488, "Land": 10489, "trường_quay": 10490, "Thương_hiệu": 10491, "tần": 10492, "bệ_phóng": 10493, "áo_@@": 10494, "Thôi": 10495, "chủ_nợ": 10496, "phân_định": 10497, "tìm_tòi": 10498, "khác_thường": 10499, "Hợi": 10500, "sắp_đặt": 10501, "bor@@": 10502, "Quảng_Đông": 10503, "Trang_phục": 10504, "GPS": 10505, "Jerusalem": 10506, "eni@@": 10507, "cha_ông": 10508, "bức_xạ": 10509, "Steve_@@": 10510, "thuế_quan": 10511, "Erdogan": 10512, "bình_dị": 10513, "h3": 10514, "tel@@": 10515, "ame": 10516, "Hạnh_phúc": 10517, "Bat@@": 10518, "TN-MT": 10519, "Mê_Linh": 10520, "VCCI": 10521, "nhiễm_bệnh": 10522, "tối_tân": 10523, "Plaza": 10524, "PV@@": 10525, "Đời": 10526, "giường_bệnh": 10527, "phản_xạ": 10528, "ud@@": 10529, "àn": 10530, "Tình_báo": 10531, "27,@@": 10532, "chiếm_giữ": 10533, "cứu_thương": 10534, "hoà_tan": 10535, "dẫu": 10536, "Cần_Giờ": 10537, "phạt_đền": 10538, "h00": 10539, "phổ": 10540, "trung_hạn": 10541, "1947": 10542, "Cung_@@": 10543, "Đơn_giản": 10544, "Fin@@": 10545, "ona": 10546, "nhà_phân_phối": 10547, "gen@@": 10548, "Trái": 10549, "Ho": 10550, "Yamaha": 10551, "08@@": 10552, "Hải_Yến": 10553, "enko": 10554, "trọng_thương": 10555, "địa_ốc": 10556, "n.": 10557, "Jones": 10558, "nhà_văn_hoá": 10559, "ene": 10560, "chính_thống": 10561, "buồng_trứng": 10562, "ba_@@": 10563, "phim_trường": 10564, "line": 10565, "Ngọ": 10566, "mồm": 10567, "giáo_dục_phổ_thông": 10568, "phôi": 10569, "hệ_miễn_dịch": 10570, "kìm": 10571, "ác_mộng": 10572, "@@@": 10573, "Cầm": 10574, "Chí_@@": 10575, "Ô@@": 10576, "800.000": 10577, "Mẫn": 10578, "n_l@@": 10579, "Vượng": 10580, "Cảng_hàng_không": 10581, "chớp": 10582, "thói": 10583, "quá_khích": 10584, "lạ_mặt": 10585, "cám_ơn": 10586, "ốt": 10587, "aj@@": 10588, "quý_vị": 10589, "Kenya": 10590, "Không_khí": 10591, "phân_@@": 10592, "hội_ngộ": 10593, "Cô_dâu": 10594, "ờ": 10595, "Bi": 10596, "Slovakia": 10597, "Saint-@@": 10598, "ami": 10599, "Trà_My": 10600, "my": 10601, "gây_dựng": 10602, "thẻ_tín_dụng": 10603, "dàn_xếp": 10604, "chiến_công": 10605, "vi_rút": 10606, "11m": 10607, "nhiễm_độc": 10608, "Benzema": 10609, "im_@@": 10610, "định_mệnh": 10611, "5.": 10612, "ti_vi": 10613, "Cre@@": 10614, "ú@@": 10615, "ess": 10616, "24h": 10617, "Viện_kiểm_sát": 10618, "cc": 10619, "bitcoin": 10620, "Thú_y": 10621, "tỏ_tình": 10622, "NS": 10623, "Minh_Châu": 10624, "ỉ": 10625, "Tiểu_đoàn": 10626, "ong@@": 10627, "Tam_Kỳ": 10628, "Hiền_@@": 10629, "Louis": 10630, "chủng": 10631, "Nguyễn_Thế_@@": 10632, "Thuỵ": 10633, "Men@@": 10634, "FI@@": 10635, "DVD": 10636, "Hoàng_hậu": 10637, "NA": 10638, "hi_sinh": 10639, "120.000": 10640, "thời_thượng": 10641, "Đông_y": 10642, "logistics": 10643, "Báo_điện_tử": 10644, "Ma": 10645, "ô-@@": 10646, "truyện_ngắn": 10647, "nã": 10648, "1.9@@": 10649, "múc": 10650, "cơ_giới": 10651, "ABC": 10652, "Hội_đồng_nhân_dân": 10653, "5/2016": 10654, "19h": 10655, "7/2017": 10656, "sau_cùng": 10657, "Nghị": 10658, "104": 10659, "ky@@": 10660, "Mai_Phương": 10661, "TNMT": 10662, "ngạt": 10663, "chánh": 10664, "lẩn_trốn": 10665, "bao_bọc": 10666, "Mạc_@@": 10667, "6/2018": 10668, "mỹ_quan": 10669, "múi": 10670, "SDF": 10671, "xoa": 10672, "thường_lệ": 10673, "phù_thuỷ": 10674, "Str@@": 10675, "nam_tính": 10676, "10h": 10677, "tha@@": 10678, "ngành_hàng": 10679, "liên_hợp": 10680, "International": 10681, "học_kỳ": 10682, "trau_dồi": 10683, "xuống_nước": 10684, "kĩ_năng": 10685, "án_treo": 10686, "ùa": 10687, "Xu_hướng": 10688, "Ichneumonidae": 10689, "cổ_kính": 10690, "Quang_Huy": 10691, "ru": 10692, "Bay": 10693, "Sil@@": 10694, "las@@": 10695, "Sài": 10696, "awa": 10697, "tổng_lượng": 10698, "Phan_Anh": 10699, "Đám_cưới": 10700, "Trần_Thanh_@@": 10701, "270": 10702, "Thu_Hằng": 10703, "The_Sun": 10704, "dạ": 10705, "U-@@": 10706, "ji@@": 10707, "bộ_xử_lý": 10708, "cà": 10709, "Fer@@": 10710, "gian_nan": 10711, "116": 10712, "Thư_viện": 10713, "Thay_đổi": 10714, "Karnataka": 10715, "1.600": 10716, "sở_hữu_trí_tuệ": 10717, "1956": 10718, "liên_tưởng": 10719, "bất_chính": 10720, "Vui": 10721, "Valentine": 10722, "thọ": 10723, "formula": 10724, "nung": 10725, "nhà_bếp": 10726, "Thu_Hương": 10727, "ng.@@": 10728, "trình_chiếu": 10729, "hối_thúc": 10730, "hoả": 10731, "kar@@": 10732, "ato@@": 10733, "na_@@": 10734, "ẩu_đả": 10735, "6-3": 10736, "phóng_sự": 10737, "truy_xuất": 10738, "ette": 10739, "m-@@": 10740, "Kế": 10741, "Tôn_Đức_Thắng": 10742, "ậu": 10743, "mong_ước": 10744, "9/2016": 10745, "búa": 10746, "điện_đàm": 10747, "Raqqa": 10748, "Cơ_chế": 10749, "NT": 10750, "Quân_đoàn": 10751, "la_hét": 10752, "trọng_đại": 10753, "TCTD": 10754, "Mr.": 10755, "Bằng_chứng": 10756, "gội": 10757, "sta@@": 10758, "liên_hoàn": 10759, "điều_tra_viên": 10760, "XX": 10761, "mạn": 10762, "máy_bơm": 10763, "VEC": 10764, "đồ_án": 10765, "Triển_khai": 10766, "hả": 10767, "niên_đại": 10768, "Tìm_kiếm": 10769, "ghen_tuông": 10770, "khay": 10771, "Quán_quân": 10772, "N1": 10773, "nhãn_mác": 10774, "Chuyển": 10775, "kế_nhiệm": 10776, "Gr@@": 10777, "rổ": 10778, "Dũng_@@": 10779, "lor@@": 10780, "mất_giá": 10781, "vị_thành_niên": 10782, "chống_chọi": 10783, "chiến_sự": 10784, "Mos@@": 10785, "chậm_chạp": 10786, "giày_dép": 10787, "bồi": 10788, "NVCC": 10789, "team": 10790, "biên_tập_viên": 10791, "ông_già": 10792, "êm": 10793, "trầm_trồ": 10794, "một_@@": 10795, "Bluetooth": 10796, "Cô_giáo": 10797, "Đưa_Tin": 10798, "Brasil": 10799, "ca_@@": 10800, "Sửu": 10801, "bán_kính": 10802, "status": 10803, "dạy_dỗ": 10804, "lịch_lãm": 10805, "Côn_Đảo": 10806, "sức_lực": 10807, "Ngư": 10808, "ym@@": 10809, "hốt_hoảng": 10810, "thất_thu": 10811, "1944": 10812, "ther@@": 10813, "bừng": 10814, "phong_cảnh": 10815, "soát": 10816, "Duy_.": 10817, "ren@@": 10818, "Rừng": 10819, "eo_biển": 10820, "Mặt_trời": 10821, "Game": 10822, "8/2018": 10823, "biểu_quyết": 10824, "danh_ca": 10825, "Hy": 10826, "1/10": 10827, "dao_kéo": 10828, "cuốc": 10829, "Trần_Minh_@@": 10830, "260": 10831, "Quỳnh_Anh": 10832, "Maps": 10833, "nức_nở": 10834, "Bắc_Cực": 10835, "Chris_@@": 10836, "riêng_lẻ": 10837, "ng.": 10838, "dor@@": 10839, "Thế_Giới": 10840, "quyết_đoán": 10841, "UN@@": 10842, "cuống": 10843, "khổ_sở": 10844, "Tech@@": 10845, "Lê_Lợi": 10846, "chiều_qua": 10847, "Thì": 10848, "Bảo_hiểm_xã_hội": 10849, "1955": 10850, "đăng_kí": 10851, "Diễn_biến": 10852, "6/2016": 10853, "xịn": 10854, "Phản_ứng": 10855, "2,7": 10856, "Thanh_Hải": 10857, "lượn": 10858, "Balotelli": 10859, "ris": 10860, "iền": 10861, "Khảo_sát": 10862, "Shin@@": 10863, "ser@@": 10864, "you": 10865, "Bắc_Từ_Liêm": 10866, "Petrolimex": 10867, "sơ_cứu": 10868, "Mai_Phương_Thuý": 10869, "Mặt_Trời": 10870, "Disney": 10871, "Gửi": 10872, "ngày_sinh": 10873, "Mỹ_Đức": 10874, "TA": 10875, "trồng_trọt": 10876, "Il@@": 10877, "je@@": 10878, "RIA": 10879, "tháo_chạy": 10880, "sờ": 10881, "phy@@": 10882, "khá_giả": 10883, "xuất_huyết": 10884, "trổ": 10885, "tối_ưu_hoá": 10886, "Hàm_@@": 10887, "megapixel": 10888, "trăm_ngàn": 10889, "3,2": 10890, "Express": 10891, "cối": 10892, "thất": 10893, "xem_ra": 10894, "lạ_lùng": 10895, "Pho@@": 10896, "Kỳ_Sơn": 10897, "ant@@": 10898, "VHTT": 10899, "kiều_bào": 10900, "1941": 10901, "phái_đẹp": 10902, "pl@@": 10903, "khởi_nghĩa": 10904, "khủng_hoảng_kinh_tế": 10905, "illa": 10906, "AB@@": 10907, "hoá_ra": 10908, "tr": 10909, "con_dấu": 10910, "Hàng_hải": 10911, "Ol@@": 10912, "Khó_khăn": 10913, "Cat@@": 10914, "mời_thầu": 10915, "Động": 10916, "mãn_tính": 10917, "Kim_Liên": 10918, "est": 10919, "ngời": 10920, "hiện_giờ": 10921, "startup": 10922, "kiểm_dịch": 10923, "Silva": 10924, "đánh_đổi": 10925, "Hậu_@@": 10926, "ăn_kiêng": 10927, "Xung_quanh": 10928, "trung_học_phổ_thông": 10929, "Tiêu_chuẩn": 10930, "ga@@": 10931, "phù": 10932, "vest": 10933, "TO@@": 10934, "Jan@@": 10935, "săn_lùng": 10936, "cấp_điện": 10937, "Cảnh_báo": 10938, "ba_lô": 10939, "soái": 10940, "Thời_@@": 10941, "R.": 10942, "tài_khoá": 10943, "Hoà_bình": 10944, "giao_thương": 10945, "in-@@": 10946, "thoái_hoá": 10947, "Thực": 10948, "Đồng_Hới": 10949, "đôi_chút": 10950, "NT@@": 10951, "Đồ": 10952, "5/201@@": 10953, "5-7": 10954, "vũ": 10955, "1957": 10956, "thẳm": 10957, "tuýp": 10958, ",@@": 10959, "đau_nhức": 10960, "bé_nhỏ": 10961, "TL": 10962, "Nghĩa_là": 10963, "8/201@@": 10964, "io": 10965, "ngậm": 10966, "16-@@": 10967, "Dậu": 10968, "Giáo": 10969, "Doanh": 10970, "tiêu_hao": 10971, "thù_lao": 10972, "eo_@@": 10973, "vỗ_tay": 10974, "1942": 10975, "Thái_Hoà": 10976, "hoành_hành": 10977, "điểm_sàn": 10978, "San_Francisco": 10979, "James_@@": 10980, "don@@": 10981, "hòng": 10982, "Phương_Nam": 10983, "100m": 10984, "ổng": 10985, "Cle@@": 10986, "thiện_cảm": 10987, "Nam_bộ": 10988, "Doanh_thu": 10989, "biến_áp": 10990, "BLHS": 10991, "SP": 10992, "địa_vị": 10993, "cõi": 10994, "Ken@@": 10995, "Nữ_sinh": 10996, "cam@@": 10997, "1m": 10998, "niêm_phong": 10999, "Vi_phạm": 11000, "thiệp": 11001, "Phân_@@": 11002, "ura": 11003, "Hương_Sơn": 11004, "CV": 11005, "tiếp_quản": 11006, "hiệp_sĩ": 11007, "hình_mẫu": 11008, "tróc": 11009, "bảo_kê": 11010, "Cer@@": 11011, "Lê_Ngọc_@@": 11012, "war@@": 11013, "Đẹp": 11014, "giác": 11015, "Vai": 11016, "hoá_giải": 11017, "nga": 11018, "Lexus": 11019, "ob@@": 11020, "nam@@": 11021, "dò": 11022, "sảnh": 11023, "Đánh": 11024, "èn": 11025, "22%": 11026, "Watch": 11027, "BTS": 11028, "cá_voi": 11029, "bao_cao_su": 11030, "_nh@@": 11031, "khôn": 11032, "phân_khối": 11033, "Ob@@": 11034, "vui_tươi": 11035, "tội_lỗi": 11036, "Phân_tích": 11037, "Xuân_Mai": 11038, "chồng_con": 11039, "thực_địa": 11040, "thiếu_vắng": 11041, "von": 11042, "kiệt_sức": 11043, "chí@@": 11044, "House": 11045, "VIII": 11046, "You": 11047, "giải_nghệ": 11048, "Khiêm": 11049, "xưng": 11050, "khiêu_dâm": 11051, "từ_trường": 11052, "ill": 11053, "biết_đâu": 11054, "i_th@@": 11055, "2,8": 11056, "mẩu": 11057, "Fran@@": 11058, "Hoa_Đông": 11059, "nách": 11060, "Sầm_Sơn": 11061, "ò": 11062, "Rêu": 11063, "đậy": 11064, "Hitler": 11065, "rào_chắn": 11066, "Cư_dân": 11067, "phim_tài_liệu": 11068, "đi_@@": 11069, "den@@": 11070, "Bol@@": 11071, "175": 11072, "gia_dụng": 11073, "VII": 11074, "pháp_y": 11075, "xo@@": 11076, "Chicago": 11077, "Ancelotti": 11078, "dy_@@": 11079, "yen": 11080, "Thị_trưởng": 11081, "Dịch": 11082, "phê": 11083, "Bou@@": 11084, "Metro": 11085, "ado@@": 11086, "Jackson": 11087, "mày_râu": 11088, "8h": 11089, "Loạt": 11090, "chân_váy": 11091, "khó_lòng": 11092, "Max": 11093, "Met@@": 11094, "ó@@": 11095, "Cái_@@": 11096, "ng_tr@@": 11097, "om": 11098, "tự_động_hoá": 11099, "Thừa_Thiên-Huế": 11100, "112": 11101, "gộp": 11102, "TIN": 11103, "James@@": 11104, "my@@": 11105, "di_@@": 11106, "Lợi_nhuận": 11107, "David@@": 11108, "San": 11109, "HNM": 11110, "máy_tính_xách_tay": 11111, "Sor@@": 11112, "G-@@": 11113, "F-16": 11114, "đặc_hữu": 11115, "hội_hoạ": 11116, "ky": 11117, "chuyên_mục": 11118, "Nói_chung": 11119, "tiền_lệ": 11120, "che_chắn": 11121, "cưỡng": 11122, "ka_@@": 11123, "guitar": 11124, "zh@@": 11125, "viễn_cảnh": 11126, "Giám_khảo": 11127, "sỹ": 11128, "đại_chiến": 11129, "cám": 11130, "bóng_tối": 11131, "nhân_@@": 11132, "Công_lý": 11133, "Richard_@@": 11134, "đầu_độc": 11135, "tiếp_tay": 11136, "2/2017": 11137, "Hang-seo": 11138, "Quang_cảnh": 11139, "1.400": 11140, "Anh_chàng": 11141, "ế@@": 11142, "Kra@@": 11143, "Ia_@@": 11144, "VĐQG": 11145, "giải_thoát": 11146, "kỳ_tích": 11147, "hễ": 11148, "triệu_hồi": 11149, "Op@@": 11150, "Cố_vấn": 11151, "Murray": 11152, "Kha": 11153, "Xí_nghiệp": 11154, "tar": 11155, "giăng": 11156, "Wayne_Rooney": 11157, "thực_thụ": 11158, "Auto@@": 11159, "xoăn": 11160, "cúc": 11161, "Duy_Tân": 11162, "Cook": 11163, "rượt": 11164, "cy@@": 11165, "tráng": 11166, "bưu_chính": 11167, "Bão": 11168, "nhờn": 11169, "cấu_thành": 11170, "pixel": 11171, "s-@@": 11172, "công_lý": 11173, "cel@@": 11174, "Võ": 11175, "mờ_nhạt": 11176, "Quang_Lê": 11177, "Bãi_@@": 11178, "công_lao": 11179, "dưa_chuột": 11180, "Beckham": 11181, "Nghị_viện": 11182, "League": 11183, "lấy_làm": 11184, "hoàng_hậu": 11185, "đánh_ghen": 11186, "thông_suốt": 11187, "5G": 11188, "6-4": 11189, "2,6": 11190, "Liễu": 11191, "thường_vụ": 11192, "ons@@": 11193, "ind@@": 11194, "Hymenoptera": 11195, "Bạc": 11196, "sinh_tố": 11197, "PA": 11198, "Xuất_khẩu": 11199, "370": 11200, "tổ_ấm": 11201, "phát_âm": 11202, "Có_mặt": 11203, "thăm_quan": 11204, "vi_xử_lý": 11205, "chát": 11206, "liệu_pháp": 11207, "thủ_thuật": 11208, "ise": 11209, "én": 11210, "ben": 11211, "ép_buộc": 11212, "Grand_Slam": 11213, "ron": 11214, "hào_quang": 11215, "có_hạn": 11216, "bén": 11217, "nạc": 11218, "Thuỳ_Dương": 11219, "1/6": 11220, "quốc_nội": 11221, "Hổ": 11222, "giả_vờ": 11223, "PGS-TS": 11224, "Diễn_@@": 11225, "mann": 11226, "ốm_đau": 11227, "đế_chế": 11228, "Ferguson": 11229, "khí_tượng_thuỷ_văn": 11230, "4-1": 11231, "7-8": 11232, "wan": 11233, "rung_động": 11234, "i_C@@": 11235, "ự": 11236, "truy_cứu": 11237, "Dell": 11238, "tra_cứu": 11239, "bóng_bàn": 11240, "chân_chính": 11241, "ưu_việt": 11242, "Pap@@": 11243, "thượng_nguồn": 11244, "ư@@": 11245, "fe@@": 11246, "Màu_sắc": 11247, "thi_thoảng": 11248, "choáng": 11249, "cương_quyết": 11250, "on-@@": 11251, "trí_tuệ_nhân_tạo": 11252, "nặng_ký": 11253, "Tiểu": 11254, "rơm": 11255, "mỹ_nghệ": 11256, "lựu": 11257, "thái_quá": 11258, "sở_dĩ": 11259, "sưa": 11260, "Hyundai": 11261, "Thường_Tín": 11262, "cõng": 11263, "Võ_Thị_@@": 11264, "Tai_nạn": 11265, "Mul@@": 11266, "an_táng": 11267, "Huỳnh_Văn_@@": 11268, "_s@@": 11269, "ực": 11270, "chênh": 11271, "áp_suất": 11272, "Viện_Hàn_lâm": 11273, "TKV": 11274, "Lan_Anh": 11275, "dồn_dập": 11276, "field": 11277, "Phong_cách": 11278, "Algeria": 11279, "W.": 11280, "cán_sự": 11281, "Á_quân": 11282, "ny": 11283, "_m@@": 11284, "Hành_chính": 11285, "Trí_@@": 11286, "Arsene_Wenger": 11287, "CL@@": 11288, "Kevin_@@": 11289, "tổng_tài": 11290, "biết_bao_nhiêu": 11291, "cầu_lông": 11292, "bur@@": 11293, "Khí_tượng_Thuỷ_văn": 11294, "châu_Mỹ": 11295, "làm_quà": 11296, "hoạt": 11297, "E.@@": 11298, "Thỉnh_thoảng": 11299, "Vnexpress": 11300, "6/201@@": 11301, "di_dân": 11302, "style": 11303, "hành_tây": 11304, "card": 11305, "Bình_Sơn": 11306, "nhỏ_tuổi": 11307, "Phạm_Bình_Minh": 11308, "chứng_thực": 11309, "Amsterdam": 11310, "ran": 11311, "Đối_thoại": 11312, "nước_ngầm": 11313, "Phổ": 11314, "giải_mã": 11315, "ku@@": 11316, "VIDEO": 11317, "Dailymail": 11318, "4/201@@": 11319, "chuẩn_xác": 11320, "k_S@@": 11321, "sinh_@@": 11322, "rảnh": 11323, "tuyên_dương": 11324, "tehsil": 11325, "U-23": 11326, "Khải_@@": 11327, "Nữ_@@": 11328, "xoa_dịu": 11329, "29,@@": 11330, "m_t@@": 11331, "ace": 11332, "14-@@": 11333, "rỉ": 11334, "Vit@@": 11335, "ase": 11336, "4h": 11337, "phồng": 11338, "1.800": 11339, "co_giật": 11340, "truyền_nhiễm": 11341, "sải": 11342, "500@@": 11343, "tự_trị": 11344, "Sợ": 11345, "đế_quốc": 11346, "Điều_kiện": 11347, "Kiểm_lâm": 11348, "N.T.@@": 11349, "n_đ@@": 11350, "penalty": 11351, "Trúc_@@": 11352, "sơ_hở": 11353, "BĐ": 11354, "Entertainment": 11355, "Su-35": 11356, "nhắn_nhủ": 11357, "hôn_lễ": 11358, "biên_độ": 11359, "Quốc_vương": 11360, "Kon@@": 11361, "vis@@": 11362, "pha_trộn": 11363, "Văn_Quyết": 11364, "IBM": 11365, "la_@@": 11366, "Ngô_Thanh_Vân": 11367, "tài_hoa": 11368, "Phi_Thanh_Vân": 11369, "Cro@@": 11370, "ture": 11371, "Vỹ": 11372, "Ang@@": 11373, "Hay@@": 11374, "8/2016": 11375, "NE@@": 11376, "Cầu_@@": 11377, "Lại_@@": 11378, "nghiêm_cấm": 11379, "AD@@": 11380, "đường_ray": 11381, "47@@": 11382, "link": 11383, "sạp": 11384, "bảo_toàn": 11385, "as_@@": 11386, "tiếng_vang": 11387, "Vô_địch": 11388, "công_tố": 11389, "tặc": 11390, "4/2016": 11391, "Sam_@@": 11392, "An_Phú": 11393, "Sin@@": 11394, "chuộng": 11395, "Bởi_thế": 11396, "37,@@": 11397, "7/2016": 11398, "trung_niên": 11399, "Cựu_@@": 11400, "ướng": 11401, "IX": 11402, "cảm_tình": 11403, "Quay": 11404, "toà_soạn": 11405, "Bà_Rịa-Vũng_Tàu": 11406, "Boo@@": 11407, "Thuận_An": 11408, "us_@@": 11409, "Av@@": 11410, "p-@@": 11411, "Như_@@": 11412, "hất": 11413, "Tần": 11414, "tam_giác": 11415, "Diễm_Hương": 11416, "Hội_@@": 11417, "Kal@@": 11418, "phi_pháp": 11419, "Nat@@": 11420, "lên_lớp": 11421, "mui": 11422, "3/2016": 11423, "Trịnh_Công_Sơn": 11424, "cũ_kỹ": 11425, "lên_xuống": 11426, "thần_kỳ": 11427, "thăng_tiến": 11428, "quý_tộc": 11429, "L-@@": 11430, "19-@@": 11431, "Trà_@@": 11432, "phân_tán": 11433, "kiểng": 11434, "tham_chiếu": 11435, "sa_@@": 11436, "Võ_Nguyên_Giáp": 11437, "bao_cấp": 11438, "òng": 11439, "QLTT": 11440, "Gọi": 11441, "bolero": 11442, "SA@@": 11443, "Tour": 11444, "280": 11445, "Tự_@@": 11446, "Hồng_Vân": 11447, "tiếp_sức": 11448, "LĐ-TB": 11449, "metro": 11450, "21,@@": 11451, "Y_học": 11452, "Du_@@": 11453, "mướt": 11454, "F.": 11455, "bất_động": 11456, "Williams": 11457, "hoá_thạch": 11458, "Phấn": 11459, "điếu": 11460, "Nét": 11461, "bình_an": 11462, "n_tr@@": 11463, "Sắc": 11464, "_r@@": 11465, "icus": 11466, "buông_lỏng": 11467, "Sri_Lanka": 11468, "kết_tội": 11469, "Liên_Chiểu": 11470, "Thạch_Thất": 11471, "Khai_thác": 11472, "SI@@": 11473, "Cảm_giác": 11474, "w_@@": 11475, "SD@@": 11476, "triệu_phú": 11477, "can_đảm": 11478, "toàn_vẹn": 11479, "khiển_trách": 11480, "Cổ_phiếu": 11481, "AM": 11482, "tậu": 11483, "ne_@@": 11484, "46@@": 11485, "trữ": 11486, "ese": 11487, "John_Kerry": 11488, "Cộng_hoà_Séc": 11489, "Công_chúa": 11490, "càng_ngày_càng": 11491, "bão_hoà": 11492, "30,@@": 11493, "ất": 11494, "solo": 11495, "—": 11496, "Nar@@": 11497, "lạ_mắt": 11498, "tái_thiết": 11499, "SS": 11500, "rảnh_rỗi": 11501, "chà": 11502, "Gareth_Bale": 11503, "Đậu_@@": 11504, "kèo": 11505, "Kat@@": 11506, "máy_@@": 11507, "ee": 11508, "trung_đoàn": 11509, "Bằng_@@": 11510, "HĐ@@": 11511, "phớt_lờ": 11512, "đánh_thức": 11513, "sống_còn": 11514, "Thượng_đỉnh": 11515, "Business_Insider": 11516, "BO@@": 11517, "nhét": 11518, "Bùi_Tiến_Dũng": 11519, "trắc_nghiệm": 11520, "Nhàn": 11521, "biết_điều": 11522, "đậu_nành": 11523, "our": 11524, "lo_âu": 11525, "NNPTNT": 11526, "Trường_Chinh": 11527, "trêu": 11528, "Giải_thích": 11529, "Mai_Tiến_Dũng": 11530, "nguỵ_trang": 11531, "giông": 11532, "tz": 11533, "ảm_đạm": 11534, "túi_tiền": 11535, "dụ": 11536, "mượt": 11537, "nhật_ký": 11538, "Time": 11539, "Giấy_phép": 11540, "Bọn": 11541, "đi_nữa": 11542, "Da": 11543, "cần_sa": 11544, "phụ_giúp": 11545, "mặt_khác": 11546, "Resort": 11547, "chiếm_lĩnh": 11548, "song_sinh": 11549, "Vinaconex": 11550, "rộn_ràng": 11551, "9x": 11552, "Porsche": 11553, "súp": 11554, "Đạo_@@": 11555, "xung_phong": 11556, "Lựa_chọn": 11557, "khiếm_khuyết": 11558, "Cổ": 11559, "1953": 11560, "mb@@": 11561, "nhập_cuộc": 11562, "Paul": 11563, "Diễm": 11564, "cá@@": 11565, "Chờ": 11566, "là@@": 11567, "Virginia": 11568, "tiếp_giáp": 11569, "Hyundai_@@": 11570, "cất_giấu": 11571, "chuyên_dùng": 11572, "Cử_tri": 11573, "né": 11574, "lợp": 11575, "21h": 11576, "lăng_mộ": 11577, "KTS": 11578, "vẫy": 11579, "gò": 11580, "tu_bổ": 11581, "chân_thật": 11582, "Aston_Villa": 11583, "chiếm_dụng": 11584, "toàn_cảnh": 11585, "lối_thoát": 11586, "hạn_mức": 11587, "Tây_Tạng": 11588, "Gã": 11589, "lầy": 11590, "Wall": 11591, "chính_khách": 11592, "đơn_giá": 11593, "sáng_suốt": 11594, "Cos@@": 11595, "Cam": 11596, "bốc_lửa": 11597, "Nền": 11598, "Angelina_Jolie": 11599, "ổ_cứng": 11600, "Bkav": 11601, "khảo_cổ": 11602, "thóc": 11603, "pha_chế": 11604, "Viễn": 11605, "Bất_cứ": 11606, "ate@@": 11607, "Catalan": 11608, "In": 11609, "á_quân": 11610, "4.500": 11611, "trứng_cá": 11612, "Canh": 11613, "lỗ_chân_lông": 11614, "Chứng_kiến": 11615, "tạp_hoá": 11616, "săn_đón": 11617, "x_@@": 11618, "Bình_luận": 11619, "bank": 11620, "Asia": 11621, "đột_kích": 11622, "Tôn": 11623, "thở_dài": 11624, "ham@@": 11625, "hồ_tiêu": 11626, "11.000": 11627, "Trung_Nguyên": 11628, "mùi_vị": 11629, "Series": 11630, "Làm_việc": 11631, "17h": 11632, "lý_lịch": 11633, "Ev@@": 11634, "Kas@@": 11635, "3/201@@": 11636, "Sâm": 11637, "h45": 11638, "Thủ": 11639, "bèo": 11640, "BC": 11641, "Pat@@": 11642, "New_Delhi": 11643, "o-@@": 11644, "su": 11645, "ùng": 11646, "triều_cường": 11647, "Vào_khoảng": 11648, "h_@@": 11649, "bon": 11650, "126": 11651, "Lyon": 11652, "_kh@@": 11653, "Diện": 11654, "năm_xưa": 11655, "ros@@": 11656, "Taylor": 11657, "nhấn_chìm": 11658, "ush@@": 11659, "0-2": 11660, "chỉn_chu": 11661, "fer@@": 11662, "Grand_@@": 11663, "HD@@": 11664, "QĐND": 11665, "Toản": 11666, "Bất_@@": 11667, "da_màu": 11668, "ADB": 11669, "tinh_xảo": 11670, "8,5": 11671, "ph": 11672, "bệ": 11673, "cap@@": 11674, "tống_tiền": 11675, "đeo_bám": 11676, "Xi@@": 11677, "Gia_Định": 11678, "sâu_bệnh": 11679, "Czech": 11680, "nhang": 11681, "đại_đoàn_kết": 11682, "Tú_Anh": 11683, "tê": 11684, "ok": 11685, "hạt_tiêu": 11686, "Lâu": 11687, "123": 11688, "Qualcomm": 11689, "suy_dinh_dưỡng": 11690, "24-@@": 11691, "gia_tộc": 11692, "phi@@": 11693, "tươi_đẹp": 11694, "Thân_@@": 11695, "ini@@": 11696, "lãnh_tụ": 11697, "thuyết_trình": 11698, "ăng_@@": 11699, "bỏ_túi": 11700, "đan_xen": 11701, "tê_giác": 11702, "thảm_khốc": 11703, "thân_mềm": 11704, "flash": 11705, "Mường": 11706, "te_@@": 11707, "Tro@@": 11708, "Phối_hợp": 11709, "ion": 11710, "thực_lực": 11711, "Pl@@": 11712, "luân_phiên": 11713, "-2": 11714, "gameshow": 11715, "Cá_nhân": 11716, "Hiệp_@@": 11717, "88@@": 11718, "thôi_việc": 11719, "đắc_lực": 11720, "làm_khó": 11721, "hành_quyết": 11722, "Gil@@": 11723, "lam@@": 11724, "đính_hôn": 11725, "đúng_mức": 11726, "3,4": 11727, "Phật_@@": 11728, "xà": 11729, "giả_định": 11730, "Vinashin": 11731, "MO@@": 11732, "mơ_hồ": 11733, "Mak@@": 11734, "hưởng_thụ": 11735, "BRT": 11736, "3.0": 11737, "IP@@": 11738, "35,@@": 11739, "Guardiola": 11740, "700.000": 11741, "rau_muống": 11742, "Lê_Xuân_@@": 11743, "ăn_chay": 11744, "Bách": 11745, "viêm_nhiễm": 11746, "Vũ_khí": 11747, "Lê_Hồng_@@": 11748, "ster@@": 11749, "Dạy": 11750, "nhập_siêu": 11751, "tiêu_đề": 11752, "Trứng": 11753, "Ngô_Quyền": 11754, "khuấy": 11755, "Quỳnh_Lưu": 11756, "Lar@@": 11757, "Taylor_Swift": 11758, "ninh": 11759, "cửa_kính": 11760, "ngất_xỉu": 11761, "cáp_quang": 11762, "sơ_chế": 11763, "06@@": 11764, "có_lý": 11765, "55%": 11766, "Windows_Phone": 11767, "UBKT": 11768, "Chân_dung": 11769, "Ven@@": 11770, "đậu_xanh": 11771, "thạch": 11772, "Đắc_@@": 11773, "Kpop": 11774, "Trắng": 11775, "Peter@@": 11776, "nho_nhỏ": 11777, "MA@@": 11778, "Sức_mạnh": 11779, "Hazard": 11780, "4-0": 11781, "P.V.": 11782, "thượng_lưu": 11783, "gian_khổ": 11784, "210": 11785, "lạ_lẫm": 11786, "concept": 11787, "trên_hết": 11788, "đầu_óc": 11789, "AVG": 11790, "dị_vật": 11791, "Phát_@@": 11792, "vừng": 11793, "trú_ẩn": 11794, "cổ_thụ": 11795, "xúc": 11796, "thúc_giục": 11797, "khí_quyển": 11798, "cây_xăng": 11799, "Lan_Hương": 11800, "ê_kíp": 11801, "huyền_bí": 11802, "TI@@": 11803, "tam@@": 11804, "Hát": 11805, "tiền_lẻ": 11806, "quận_huyện": 11807, "tàn_bạo": 11808, "mí": 11809, "Dol@@": 11810, "Mạng": 11811, "nồng": 11812, "RO@@": 11813, "muôn": 11814, "Chứ": 11815, "i.@@": 11816, "cấu_tạo": 11817, "let": 11818, "ngoại_quốc": 11819, "sát_hạch": 11820, "áo_tắm": 11821, "Love": 11822, "chòi": 11823, "tài_lộc": 11824, "lúa_gạo": 11825, "Góc": 11826, "thể_hình": 11827, "iêu": 11828, "IPO": 11829, "xạ": 11830, "32@@": 11831, "làm_vậy": 11832, "elli": 11833, "gar@@": 11834, "Tạm": 11835, "thị_lực": 11836, "Hứa_@@": 11837, "QLDA": 11838, "đổi_thay": 11839, "FED": 11840, "Minsk": 11841, "97%": 11842, "cus": 11843, "chệch": 11844, "lì_xì": 11845, "Kim_Jong_Un": 11846, "onia": 11847, "thờ_cúng": 11848, "kĩ": 11849, "ượng": 11850, "ence": 11851, "Tĩnh": 11852, "2m": 11853, "xì": 11854, "ac": 11855, "tệ_hại": 11856, "Tr": 11857, "thai_phụ": 11858, "Fabregas": 11859, "Dương_Văn_@@": 11860, "KT@@": 11861, "thản_nhiên": 11862, "Lam_@@": 11863, "Khánh_Ly": 11864, "hoạt_chất": 11865, "định_kiến": 11866, "tạo_lập": 11867, "Cẩm_Phả": 11868, "kinh_nguyệt": 11869, "Bạch_Dương": 11870, "đái_tháo_đường": 11871, "nhượng": 11872, "Đứa": 11873, "ski": 11874, "Phú_Lộc": 11875, "ó": 11876, "lựu_đạn": 11877, "mặc_cảm": 11878, "Ngô_Thị_@@": 11879, "Chơi": 11880, "Khánh_Thi": 11881, "Công_nghệ_thông_tin": 11882, "Golden_@@": 11883, "nám": 11884, "dân_chơi": 11885, "Chữa": 11886, "cây_ăn_quả": 11887, "túc_trực": 11888, "vô_@@": 11889, "trường_lớp": 11890, "51%": 11891, "kịch_liệt": 11892, "Ngã": 11893, "Eri@@": 11894, "lov": 11895, "Galaxy_@@": 11896, "c_t@@": 11897, "tường_thuật": 11898, "phi_thường": 11899, "xoè": 11900, "nước_rút": 11901, "Hoàng_Nam": 11902, "Kho": 11903, "Thượng_nghị_sĩ": 11904, "hoảng_hốt": 11905, "Đại_lộ": 11906, "109": 11907, "Tả_@@": 11908, "cổ_xưa": 11909, "Hồ_Quang": 11910, "rẻ_tiền": 11911, "Lebanon": 11912, "trực_diện": 11913, "bấy_nhiêu": 11914, "Web@@": 11915, "hồi_sức": 11916, "toàn_quyền": 11917, "Cộng": 11918, "chói": 11919, "kiên_định": 11920, "bận_tâm": 11921, "21%": 11922, "Tử@@": 11923, "des@@": 11924, "Telecom": 11925, "ard_@@": 11926, "ko_@@": 11927, "tan_rã": 11928, "Thanh_Chương": 11929, "GTGT": 11930, "Việt_Trì": 11931, "Kong": 11932, "đại_trà": 11933, "sổ_sách": 11934, "Giấc": 11935, "3/4": 11936, "Der@@": 11937, "bra@@": 11938, "Tân_Hiệp": 11939, "xe_lăn": 11940, "nem": 11941, "chăng": 11942, "ín": 11943, "khoái": 11944, "Quân_chủng": 11945, "Halloween": 11946, "Trở": 11947, "THX": 11948, "17-@@": 11949, "Min": 11950, "Cười": 11951, "Thường_xuyên": 11952, "vũng": 11953, "bao_tải": 11954, "treo_cổ": 11955, "Hoà_Minzy": 11956, "Thực_sự": 11957, "67@@": 11958, "Shu@@": 11959, "công_năng": 11960, "Thao": 11961, "Som@@": 11962, "mel@@": 11963, "ký_túc_xá": 11964, "4K": 11965, "bởi_vậy": 11966, "1948": 11967, "11/2018": 11968, "trữ_lượng": 11969, "3,6": 11970, "Micro@@": 11971, "rửa_tiền": 11972, "Hoàng_Thuỳ_Linh": 11973, "Lão": 11974, "điều_trần": 11975, "PT": 11976, "Hoá_học": 11977, "vệt": 11978, "Trao": 11979, "đi_đôi": 11980, "Ash@@": 11981, "Đại_Dương": 11982, "13.000": 11983, "Tuy_Hoà": 11984, "vin": 11985, "khuyết": 11986, "bổng": 11987, "đảo_lộn": 11988, "hùng_mạnh": 11989, "vỗ": 11990, "ăm": 11991, "53@@": 11992, "Pon@@": 11993, "Phần_mềm": 11994, "Rolls-Royce": 11995, "bắt_nạt": 11996, "Latinh": 11997, "úng": 11998, "Trần_Đức_@@": 11999, "truy_thu": 12000, "ato": 12001, "kết_bạn": 12002, "tháng_ngày": 12003, "bản_vẽ": 12004, "khắc_hoạ": 12005, "Rome": 12006, "đám_tang": 12007, "thân_phận": 12008, "Kinh_nghiệm": 12009, "dạt": 12010, "ad_@@": 12011, "củ_cải": 12012, "a_t@@": 12013, "có_một_không_hai": 12014, "ành": 12015, "cận_kề": 12016, "ka@@": 12017, "Next_Top_Model": 12018, "Đẫy": 12019, "Ung_thư": 12020, "Core": 12021, "tại_ngoại": 12022, "nổi_danh": 12023, "OceanBank": 12024, "tố_chất": 12025, "chân_@@": 12026, "Aguero": 12027, "thành_thạo": 12028, "do_@@": 12029, "trọng_yếu": 12030, "1943": 12031, "CAQ": 12032, "đường_biển": 12033, "phóng_khoáng": 12034, "truy_quét": 12035, "ul": 12036, "Cel@@": 12037, "ọ": 12038, "tình_ái": 12039, "Phân": 12040, "ại": 12041, "xí_nghiệp": 12042, "phong_bì": 12043, "The_Voice": 12044, "Trình": 12045, "chính_trường": 12046, "đau_thương": 12047, "Diệu": 12048, "Giúp": 12049, "SMS": 12050, "ngoan_ngoãn": 12051, "lông_mày": 12052, "vấn": 12053, "7/201@@": 12054, "từ_khoá": 12055, "xét_duyệt": 12056, "điện_máy": 12057, "nôi": 12058, "nguyên_chất": 12059, "ent_@@": 12060, "Thất_bại": 12061, "kết_nạp": 12062, "aga": 12063, "Tuổi_Trẻ": 12064, "107": 12065, "è": 12066, "lỗi_thời": 12067, "lén_lút": 12068, "lỡ_cơ": 12069, "ets": 12070, "ngửi": 12071, "Tường_@@": 12072, "Cắt": 12073, "quá_sức": 12074, "Hiệu": 12075, "Huy@@": 12076, "Hợp_tác_xã": 12077, "chơi_đùa": 12078, "gắp": 12079, "24/7": 12080, "xước": 12081, "thị_sát": 12082, "mẻ": 12083, "tion_@@": 12084, "cher": 12085, "ý_nghĩ": 12086, "49@@": 12087, "nhung": 12088, "23%": 12089, "tươi_trẻ": 12090, "tham_luận": 12091, ":30": 12092, "Hành_@@": 12093, "mài": 12094, "Thanh_Lam": 12095, "LA": 12096, "Ký": 12097, "iết": 12098, "đại_sứ_quán": 12099, "vợt": 12100, "Độc_lập": 12101, "TĐC": 12102, "ở@@": 12103, "hạt_nhân_hoá": 12104, "ngỡ": 12105, "Kiến_@@": 12106, "khí_tài": 12107, "rỗng": 12108, "1920": 12109, "amb@@": 12110, "Vol@@": 12111, "Vietjet": 12112, "HH": 12113, "kinh_đô": 12114, "ô_@@": 12115, "vàng_bạc": 12116, "Af@@": 12117, "khủng_long": 12118, "bàn_luận": 12119, "lỏng_lẻo": 12120, "Cửa_Lò": 12121, "tóm": 12122, "trơ": 12123, "mật_thiết": 12124, "al-Assad": 12125, "bình_@@": 12126, "ọc": 12127, "Lục_quân": 12128, "Motorola": 12129, "Thanh_Thuỷ": 12130, "phế_quản": 12131, "Hoà_Lạc": 12132, "Ngày_xưa": 12133, "Láng": 12134, "cơ_quan_chuyên_môn": 12135, "tỵ": 12136, "7h": 12137, "LI@@": 12138, "S7": 12139, "Trung_Hiếu": 12140, "ĐTDĐ": 12141, "thực_nghiệm": 12142, "tĩnh_mạch": 12143, "Hán_@@": 12144, "tuổi_đời": 12145, "Gái": 12146, "Khai_@@": 12147, "Leicester_City": 12148, "ray": 12149, "địa_ngục": 12150, "nghiệm": 12151, "Ánh_@@": 12152, "155": 12153, "đường_vành_đai": 12154, "triển": 12155, "PLO": 12156, "Quảng_Châu": 12157, "Vô_@@": 12158, "18.000": 12159, "65@@": 12160, "Anh_em": 12161, "ett": 12162, "a_đ@@": 12163, "DS": 12164, "Hải_Nam": 12165, "đương_đầu": 12166, "book": 12167, "nói_thẳng": 12168, "Las_Vegas": 12169, "đương_nhiệm": 12170, "phá_bỏ": 12171, "Ohio": 12172, "phiến": 12173, "QL1": 12174, "tuột": 12175, "TE@@": 12176, "địa_@@": 12177, "ẩn_chứa": 12178, "Wimbledon": 12179, "ş@@": 12180, "sô": 12181, "Tỷ_phú": 12182, "Ple@@": 12183, "giằng_co": 12184, "CC@@": 12185, "xe_cơ_giới": 12186, "không_tưởng": 12187, "sti@@": 12188, "ngày_ngày": 12189, "Tuất": 12190, "Trần_Quốc_@@": 12191, "kháng_cự": 12192, "uy": 12193, "ack": 12194, "Eric_@@": 12195, "THAAD": 12196, "vit@@": 12197, "yếu_đuối": 12198, "Lê_Duẩn": 12199, "Mỹ_nhân": 12200, "tiễn": 12201, "nối_tiếp": 12202, "sinh_đôi": 12203, "Lan_Phương": 12204, "ack@@": 12205, "ker@@": 12206, "xây_dựng_cơ_bản": 12207, "Đại_Việt": 12208, "CNC": 12209, "HOÀNG": 12210, "kẻ_gian": 12211, "Đinh_Thị_@@": 12212, "Minh_Béo": 12213, "Bảo_hiểm": 12214, "đường_huyết": 12215, "Hạn_chế": 12216, "Eli@@": 12217, "i_d@@": 12218, "cá_biệt": 12219, "Táo_quân": 12220, "1.100": 12221, "phong_kiến": 12222, "nhân_tình": 12223, "Nội_thất": 12224, "9/201@@": 12225, "phô_diễn": 12226, "phản_lực": 12227, "Bột": 12228, "BVTV": 12229, "Sab@@": 12230, "sho@@": 12231, "Đặc_điểm": 12232, "thắt_lưng": 12233, "27-@@": 12234, "Trái_tim": 12235, "Ngọn": 12236, "RC": 12237, "Nghiệp": 12238, "Đám": 12239, "Thiếu_@@": 12240, "G20": 12241, "106": 12242, "nhượng_bộ": 12243, "ngó": 12244, "Di_Maria": 12245, "tôm_hùm": 12246, "Việt_Hùng": 12247, "ID": 12248, "dự_tuyển": 12249, "Gam@@": 12250, "án_@@": 12251, "học_vấn": 12252, "song_hành": 12253, "chật_chội": 12254, "Christian_@@": 12255, "ngư": 12256, "Mơ": 12257, "húc": 12258, "with": 12259, "Maya": 12260, "zz@@": 12261, "Show": 12262, "có@@": 12263, "cầm_cố": 12264, "vàng_mã": 12265, "Nobel": 12266, "Quán_@@": 12267, "không_lưu": 12268, "4.": 12269, "úa": 12270, "Tổng_biên_tập": 12271, "xiết": 12272, "tự_ti": 12273, "dai_dẳng": 12274, "vô_giá": 12275, "David_Moyes": 12276, "hoại_tử": 12277, "Pen@@": 12278, "Cẩm_Xuyên": 12279, "Hồ_Văn_@@": 12280, "Hạ@@": 12281, "111": 12282, "ạo": 12283, "ĐHQG": 12284, "Ramos": 12285, "Đảm_bảo": 12286, "Trợ_lý": 12287, "ă@@": 12288, "Pennsylvania": 12289, "Tunisia": 12290, "sò": 12291, "khẩu_phần": 12292, "hạch": 12293, "Tim@@": 12294, "hoà_mình": 12295, "thao_túng": 12296, "Đâu": 12297, "đồng_nhất": 12298, "hiểm_nghèo": 12299, "Nak@@": 12300, "giáo_trình": 12301, "giúp_ích": 12302, "Xperia": 12303, "mượt_mà": 12304, "49%": 12305, "câu_thơ": 12306, "suy_sụp": 12307, "THANH": 12308, "bom_mìn": 12309, "xa_xưa": 12310, "ĐSPL": 12311, "nghỉ_hè": 12312, "ất_@@": 12313, "rộng_mở": 12314, "Hoá_ra": 12315, "pus": 12316, "sành": 12317, "lan_can": 12318, "aki": 12319, "ích_kỷ": 12320, "Poroshenko": 12321, "Bill_Gates": 12322, "tách_biệt": 12323, "ghê_gớm": 12324, "lãng_quên": 12325, "Costa_Rica": 12326, "chuyên_chở": 12327, "1.5": 12328, "hạ_thuỷ": 12329, "Brad_Pitt": 12330, "mồng": 12331, "Phương_Mai": 12332, "trữ_tình": 12333, "Bưu_chính": 12334, "iro": 12335, "ngộ_nghĩnh": 12336, "400@@": 12337, "An_Bình": 12338, "Dự_đoán": 12339, "Nguyễn_Đăng_@@": 12340, "say_sưa": 12341, "xe_hoa": 12342, "Hamas": 12343, "thụ_hưởng": 12344, "S8": 12345, "Thuần": 12346, "bò_sữa": 12347, "mai_táng": 12348, "Tài_sản": 12349, "Bá": 12350, "Brown": 12351, "tuần_hành": 12352, "Baghdad": 12353, "ăn_theo": 12354, "Chí@@": 12355, "NDĐT": 12356, "mưa_đá": 12357, "Đắk_@@": 12358, "thụ_động": 12359, "Đối_ngoại": 12360, "Ngân_@@": 12361, "bằng_sáng_chế": 12362, "máy_bay_tiêm_kích": 12363, "sòng": 12364, "Lukaku": 12365, "elle": 12366, "Khang_@@": 12367, "gra@@": 12368, "Yên_Tử": 12369, "kiệt": 12370, "lời_giải": 12371, "14.000": 12372, "Tân_Hoa": 12373, "hốc": 12374, "dị": 12375, "Mỹ-@@": 12376, "một_mực": 12377, "chú_thích": 12378, "mê_hoặc": 12379, "cốm": 12380, "Sta@@": 12381, "tàu_biển": 12382, "An_Dương": 12383, "43@@": 12384, "nhà_trẻ": 12385, "Thảo_Nguyên": 12386, "Nhân_Dân": 12387, "Dani@@": 12388, "đa_dạng_sinh_học": 12389, "Quy": 12390, "thôi_thúc": 12391, "gian_dối": 12392, "vi_@@": 12393, "mọng": 12394, "và@@": 12395, "tụ_điểm": 12396, "CMND": 12397, "Chăm_sóc": 12398, "6-2": 12399, "Trương_Thị_@@": 12400, "KCB": 12401, "v.v": 12402, "Kim_Dung": 12403, "Trương_Văn_@@": 12404, "chất_lỏng": 12405, "quật": 12406, "SXH": 12407, "Day": 12408, "Kennedy": 12409, "Thống_nhất": 12410, "bùa": 12411, "Thừa": 12412, "tổng_tuyển_cử": 12413, "bóng_đèn": 12414, "Hình_thức": 12415, "ợ": 12416, "и@@": 12417, "tiểu_phẩm": 12418, "bất_công": 12419, "Ben_@@": 12420, "hậu_môn": 12421, "Thông_@@": 12422, "tiện_dụng": 12423, "5-10": 12424, "tăm": 12425, "trục_vớt": 12426, "Tương_lai": 12427, "nợ_đọng": 12428, "buồng_lái": 12429, "dân_dã": 12430, "trùng_hợp": 12431, "à@@": 12432, "low": 12433, "val@@": 12434, "Xiaomi": 12435, "nguyên_thủ": 12436, "Hoàng_Thuỳ": 12437, "Bán_đảo": 12438, "cướp_biển": 12439, "ot": 12440, "Nhà_hàng": 12441, "thú_vui": 12442, "Tiến_sỹ": 12443, "quả_thực": 12444, "Viêm": 12445, "Has@@": 12446, "mải": 12447, "Sam": 12448, "chuyển_tải": 12449, "trổ_tài": 12450, "330": 12451, "lãnh_hải": 12452, "Bad@@": 12453, "Bắc_Trung_Bộ": 12454, "Huyền_thoại": 12455, "Cơ_@@": 12456, "sức_mua": 12457, "bộ_tộc": 12458, "1kg": 12459, "Tài_năng": 12460, "cá_hồi": 12461, "15h": 12462, "gang": 12463, "Tho@@": 12464, "Mi_@@": 12465, "ut": 12466, "tỉnh_lộ": 12467, "Mes@@": 12468, "Jae-in": 12469, "Hotline": 12470, "Quan_chức": 12471, "ick": 12472, "tel": 12473, "ATP": 12474, "dâu_tây": 12475,
[...]
